{
  "version": "1.0",
  "truncation": null,
  "padding": null,
  "added_tokens": [
    {
      "id": 0,
      "content": "[UNK]",
      "single_word": false,
      "lstrip": false,
      "rstrip": false,
      "normalized": false,
      "special": true
    },
    {
      "id": 1,
      "content": "[CLS]",
      "single_word": false,
      "lstrip": false,
      "rstrip": false,
      "normalized": false,
      "special": true
    },
    {
      "id": 2,
      "content": "[SEP]",
      "single_word": false,
      "lstrip": false,
      "rstrip": false,
      "normalized": false,
      "special": true
    },
    {
      "id": 3,
      "content": "[PAD]",
      "single_word": false,
      "lstrip": false,
      "rstrip": false,
      "normalized": false,
      "special": true
    },
    {
      "id": 4,
      "content": "[MASK]",
      "single_word": false,
      "lstrip": false,
      "rstrip": false,
      "normalized": false,
      "special": true
    }
  ],
  "normalizer": null,
  "pre_tokenizer": {
    "type": "ByteLevel",
    "add_prefix_space": false,
    "trim_offsets": true,
    "use_regex": true
  },
  "post_processor": null,
  "decoder": {
    "type": "ByteLevel",
    "add_prefix_space": true,
    "trim_offsets": true,
    "use_regex": true
  },
  "model": {
    "type": "BPE",
    "dropout": null,
    "unk_token": "[UNK]",
    "continuing_subword_prefix": null,
    "end_of_word_suffix": null,
    "fuse_unk": false,
    "byte_fallback": false,
    "ignore_merges": false,
    "vocab": {
      "[UNK]": 0,
      "[CLS]": 1,
      "[SEP]": 2,
      "[PAD]": 3,
      "[MASK]": 4,
      "!": 5,
      "\"": 6,
      "#": 7,
      "$": 8,
      "%": 9,
      "&": 10,
      "'": 11,
      "(": 12,
      ")": 13,
      "*": 14,
      "+": 15,
      ",": 16,
      "-": 17,
      ".": 18,
      "/": 19,
      "0": 20,
      "1": 21,
      "2": 22,
      "3": 23,
      "4": 24,
      "5": 25,
      "6": 26,
      "7": 27,
      "8": 28,
      "9": 29,
      ":": 30,
      ";": 31,
      "=": 32,
      ">": 33,
      "?": 34,
      "@": 35,
      "A": 36,
      "B": 37,
      "C": 38,
      "D": 39,
      "E": 40,
      "F": 41,
      "G": 42,
      "H": 43,
      "I": 44,
      "J": 45,
      "K": 46,
      "L": 47,
      "M": 48,
      "N": 49,
      "O": 50,
      "P": 51,
      "Q": 52,
      "R": 53,
      "S": 54,
      "T": 55,
      "U": 56,
      "V": 57,
      "W": 58,
      "X": 59,
      "Y": 60,
      "Z": 61,
      "[": 62,
      "\\": 63,
      "]": 64,
      "^": 65,
      "_": 66,
      "`": 67,
      "a": 68,
      "b": 69,
      "c": 70,
      "d": 71,
      "e": 72,
      "f": 73,
      "g": 74,
      "h": 75,
      "i": 76,
      "j": 77,
      "k": 78,
      "l": 79,
      "m": 80,
      "n": 81,
      "o": 82,
      "p": 83,
      "q": 84,
      "r": 85,
      "s": 86,
      "t": 87,
      "u": 88,
      "v": 89,
      "w": 90,
      "x": 91,
      "y": 92,
      "z": 93,
      "{": 94,
      "|": 95,
      "}": 96,
      "¡": 97,
      "¢": 98,
      "£": 99,
      "¤": 100,
      "¥": 101,
      "¦": 102,
      "§": 103,
      "¨": 104,
      "©": 105,
      "ª": 106,
      "«": 107,
      "¬": 108,
      "®": 109,
      "¯": 110,
      "°": 111,
      "±": 112,
      "²": 113,
      "³": 114,
      "´": 115,
      "µ": 116,
      "¶": 117,
      "·": 118,
      "¸": 119,
      "¹": 120,
      "º": 121,
      "»": 122,
      "¼": 123,
      "½": 124,
      "¾": 125,
      "¿": 126,
      "Â": 127,
      "Ã": 128,
      "Ä": 129,
      "Å": 130,
      "Ì": 131,
      "Î": 132,
      "Ï": 133,
      "Ð": 134,
      "Ñ": 135,
      "Ø": 136,
      "Ù": 137,
      "á": 138,
      "â": 139,
      "ã": 140,
      "ä": 141,
      "å": 142,
      "æ": 143,
      "ç": 144,
      "é": 145,
      "ê": 146,
      "ë": 147,
      "ì": 148,
      "í": 149,
      "ï": 150,
      "ð": 151,
      "ó": 152,
      "ĉ": 153,
      "Ċ": 154,
      "Ġ": 155,
      "Ģ": 156,
      "ģ": 157,
      "Ĥ": 158,
      "ĥ": 159,
      "Ħ": 160,
      "ħ": 161,
      "Ĩ": 162,
      "ĩ": 163,
      "Ī": 164,
      "ī": 165,
      "Ĭ": 166,
      "ĭ": 167,
      "Į": 168,
      "į": 169,
      "İ": 170,
      "ı": 171,
      "Ĳ": 172,
      "ĳ": 173,
      "Ĵ": 174,
      "ĵ": 175,
      "Ķ": 176,
      "ķ": 177,
      "ĸ": 178,
      "Ĺ": 179,
      "ĺ": 180,
      "Ļ": 181,
      "ļ": 182,
      "Ľ": 183,
      "ľ": 184,
      "Ŀ": 185,
      "ŀ": 186,
      "Ł": 187,
      "ł": 188,
      "Ń": 189,
      "ie": 190,
      "==": 191,
      "ÄĻ": 192,
      "Ġn": 193,
      "Ġt": 194,
      "ÅĤ": 195,
      "Ġs": 196,
      "Ġp": 197,
      "Ġw": 198,
      "Ġm": 199,
      "Ġz": 200,
      "====": 201,
      "Ġj": 202,
      "Ġc": 203,
      "Å¼": 204,
      "Ġd": 205,
      "sz": 206,
      "Äħ": 207,
      "am": 208,
      "ak": 209,
      "Ġb": 210,
      "Ġk": 211,
      "ÅĽ": 212,
      "st": 213,
      "ra": 214,
      "rz": 215,
      "iÄĻ": 216,
      "ch": 217,
      "Äĩ": 218,
      "Ã³": 219,
      "Ġna": 220,
      "Ġnie": 221,
      "em": 222,
      "dz": 223,
      "ia": 224,
      "le": 225,
      "ro": 226,
      "cz": 227,
      "========": 228,
      "Ġto": 229,
      "nie": 230,
      "Ġo": 231,
      "Ġpo": 232,
      "Ġi": 233,
      "Ġje": 234,
      "Ġg": 235,
      "an": 236,
      "li": 237,
      "Ġjak": 238,
      "ĠsiÄĻ": 239,
      "wa": 240,
      "ĠÅ¼": 241,
      "rze": 242,
      "ÅĤo": 243,
      "la": 244,
      "ko": 245,
      "Ġch": 246,
      "Ġza": 247,
      "ar": 248,
      "Ġdo": 249,
      "dy": 250,
      "en": 251,
      "aj": 252,
      "ÅĤa": 253,
      "ka": 254,
      "Ã³w": 255,
      "ym": 256,
      "ni": 257,
      "na": 258,
      "er": 259,
      "je": 260,
      "Ġjest": 261,
      "ki": 262,
      "Ġcz": 263,
      "--": 264,
      "================": 265,
      "Ġa": 266,
      "dzie": 267,
      "ci": 268,
      "Ġco": 269,
      "cie": 270,
      "on": 271,
      "ta": 272,
      "ÅĤem": 273,
      "Ġmo": 274,
      "ĠÅ¼e": 275,
      "rzy": 276,
      "ow": 277,
      "Ġty": 278,
      "Ġmi": 279,
      "ej": 280,
      "Ġma": 281,
      "Ġwy": 282,
      "da": 283,
      "Ġu": 284,
      "Ġby": 285,
      "go": 286,
      "re": 287,
      "bi": 288,
      "Ġmnie": 289,
      "ty": 290,
      "Nie": 291,
      "Ġni": 292,
      "Ġko": 293,
      "lu": 294,
      "ce": 295,
      "ny": 296,
      "ry": 297,
      "wi": 298,
      "to": 299,
      "Ġdz": 300,
      "Ġsz": 301,
      "Ġtak": 302,
      "wo": 303,
      "bie": 304,
      "ÅĦ": 305,
      "Ġf": 306,
      "Ġ(": 307,
      "Ġwie": 308,
      "szy": 309,
      "Ġro": 310,
      "ÅĤy": 311,
      "as": 312,
      "Ġte": 313,
      "Ġra": 314,
      "wie": 315,
      "czy": 316,
      "Ġprze": 317,
      "ne": 318,
      "uj": 319,
      "ur": 320,
      "dzi": 321,
      "Ġod": 322,
      "om": 323,
      "ba": 324,
      "ĠÅĽ": 325,
      "Ġtu": 326,
      "no": 327,
      "Ġh": 328,
      "Ġmam": 329,
      "To": 330,
      "pa": 331,
      "uÅ¼": 332,
      "by": 333,
      "---": 334,
      "ru": 335,
      "Ġbo": 336,
      "at": 337,
      "ja": 338,
      "ier": 339,
      "Ġst": 340,
      "lo": 341,
      "do": 342,
      "ek": 343,
      "ĠÅ¼y": 344,
      "Ġja": 345,
      "my": 346,
      "cia": 347,
      "Åº": 348,
      "Po": 349,
      "ÅĽÄĩ": 350,
      "Ġsp": 351,
      "Je": 352,
      "sta": 353,
      "or": 354,
      "sze": 355,
      "mie": 356,
      "Ch": 357,
      "ku": 358,
      "Ã³j": 359,
      "lko": 360,
      "nÄħ": 361,
      "ĠjuÅ¼": 362,
      "iÄħ": 363,
      "Ġle": 364,
      "dÄĻ": 365,
      "wia": 366,
      "et": 367,
      "ÅĤu": 368,
      "al": 369,
      "Ġno": 370,
      "Ġwi": 371,
      "Ġka": 372,
      "ĠM": 373,
      "cze": 374,
      "Ġprzy": 375,
      "Å¼e": 376,
      "ĠC": 377,
      "wy": 378,
      "ĠB": 379,
      "kie": 380,
      "âĢ": 381,
      "is": 382,
      "szyst": 383,
      "Ġlu": 384,
      "cÄĻ": 385,
      "te": 386,
      "ca": 387,
      "Jak": 388,
      "pie": 389,
      "Na": 390,
      "rÃ³": 391,
      "eÅĽ": 392,
      "..": 393,
      "in": 394,
      "Ġtylko": 395,
      "sy": 396,
      "im": 397,
      "Ġsam": 398,
      "zy": 399,
      "ĠT": 400,
      "cy": 401,
      "iedy": 402,
      "ga": 403,
      "Ġmie": 404,
      "Ġda": 405,
      "Ġzn": 406,
      "Ġdla": 407,
      "rÄĻ": 408,
      "Ġtym": 409,
      "ez": 410,
      "ĠS": 411,
      "Ġso": 412,
      "nia": 413,
      "Ġpro": 414,
      "ĠbÄĻ": 415,
      "Ġdzie": 416,
      "Ġpod": 417,
      "tÃ³": 418,
      "Ġkur": 419,
      "raz": 420,
      "Ja": 421,
      "cha": 422,
      "Ġgo": 423,
      "cho": 424,
      "Ġwszyst": 425,
      "Ġla": 426,
      "bo": 427,
      "ĠmÃ³w": 428,
      "iÅĽ": 429,
      "========================": 430,
      "========================================": 431,
      "Ġ---": 432,
      "Ġrap": 433,
      "Ġten": 434,
      "Ġpi": 435,
      "ajÄħ": 436,
      "ami": 437,
      "iÄĻc": 438,
      "Ġcho": 439,
      "Ġ-": 440,
      "Ġmu": 441,
      "de": 442,
      "Ġpa": 443,
      "pi": 444,
      "szÄĻ": 445,
      "dzÄĻ": 446,
      "Ġczy": 447,
      "Ġczas": 448,
      "Ġci": 449,
      "jÄħ": 450,
      "jÄĻ": 451,
      "raw": 452,
      "iom": 453,
      "Ġmy": 454,
      "kÄĻ": 455,
      "ĠP": 456,
      "Za": 457,
      "ÅĽci": 458,
      "Bo": 459,
      "ut": 460,
      "Ġmia": 461,
      "um": 462,
      "si": 463,
      "biÄĻ": 464,
      "Ġze": 465,
      "Äħd": 466,
      "nÄĻ": 467,
      "ĠktÃ³": 468,
      "lÄĻ": 469,
      "Ġjestem": 470,
      "ad": 471,
      "Ġroz": 472,
      "amy": 473,
      "Ġta": 474,
      "iebie": 475,
      "Ġli": 476,
      "ujÄĻ": 477,
      "Ġale": 478,
      "Å»": 479,
      "Ġsk": 480,
      "tu": 481,
      "aÅĤ": 482,
      "Ġbi": 483,
      "iem": 484,
      "gi": 485,
      "Ġziom": 486,
      "ĠW": 487,
      "Ty": 488,
      "Ġnas": 489,
      "any": 490,
      "czÄĻ": 491,
      "ĠK": 492,
      "el": 493,
      "ĠkaÅ¼": 494,
      "Ġwo": 495,
      "Jest": 496,
      "Mo": 497,
      "Ġkiedy": 498,
      "Ġpier": 499,
      "Ġkurwa": 500,
      "Ġwiem": 501,
      "Ġdob": 502,
      "po": 503,
      "Å¼y": 504,
      "ĠbyÄĩ": 505,
      "Ġgdzie": 506,
      "Ġin": 507,
      "ĠwiÄĻc": 508,
      "ĠgÅĤo": 509,
      "ony": 510,
      "Ġbez": 511,
      "bym": 512,
      "ÅĽli": 513,
      "Ġsobie": 514,
      "wsze": 515,
      "uje": 516,
      "Dz": 517,
      "Ġjed": 518,
      "Ġnic": 519,
      "tem": 520,
      "lej": 521,
      "Ġba": 522,
      "ĠciÄĻ": 523,
      "Cz": 524,
      "Ġchce": 525,
      "ĠÅ¼ycie": 526,
      "ciÄħ": 527,
      "il": 528,
      "ĠsÄħ": 529,
      "ma": 530,
      "Ġtam": 531,
      "Ġwszystko": 532,
      "ĠbÄĻdzie": 533,
      "ĠA": 534,
      "Ġpe": 535,
      "ĠchcÄĻ": 536,
      "ĠG": 537,
      "ĠÅĽwia": 538,
      "Ġtego": 539,
      "Ġrobi": 540,
      "ĠcoÅĽ": 541,
      "ĠD": 542,
      "ram": 543,
      "ĠR": 544,
      "ÅĽcie": 545,
      "Ġsta": 546,
      "Ġwe": 547,
      "Ġsu": 548,
      "ĠdziÅĽ": 549,
      "cÄħ": 550,
      "mi": 551,
      "Ã³ÅĤ": 552,
      "pier": 553,
      "sto": 554,
      "Co": 555,
      "szcze": 556,
      "ani": 557,
      "Ġdu": 558,
      "Ġgdy": 559,
      "ck": 560,
      "waÄĩ": 561,
      "Ġre": 562,
      "Wy": 563,
      "Ġmasz": 564,
      "sa": 565,
      "Ġchuj": 566,
      "Ġ\"": 567,
      "...": 568,
      "gle": 569,
      "ĠmoÅ¼e": 570,
      "un": 571,
      "wet": 572,
      "ĠâĢ": 573,
      "za": 574,
      "py": 575,
      "Ġe": 576,
      "sty": 577,
      "woje": 578,
      "Ġraz": 579,
      "Ġspo": 580,
      "ski": 581,
      "Ale": 582,
      "ĠmÃ³j": 583,
      "Ġzro": 584,
      "owy": 585,
      "ana": 586,
      "ane": 587,
      "Ġkto": 588,
      "Ġpowie": 589,
      "Ġy": 590,
      "Ġtra": 591,
      "dÅº": 592,
      "Ġku": 593,
      "sza": 594,
      "Ġzo": 595,
      "sie": 596,
      "Ġob": 597,
      "Ni": 598,
      "Ġich": 599,
      "gÄĻ": 600,
      "Ġbu": 601,
      "owu": 602,
      "ter": 603,
      "Ġlo": 604,
      "ĠkaÅ¼dy": 605,
      "Do": 606,
      "dÄħ": 607,
      "iÄĻk": 608,
      "Mam": 609,
      "Ġgra": 610,
      "Ġtych": 611,
      "ent": 612,
      "ÅĤeÅĽ": 613,
      "ĠmÃ³wi": 614,
      "ĠÅĤa": 615,
      "kiem": 616,
      "Ġkon": 617,
      "taj": 618,
      "Tak": 619,
      "Ġser": 620,
      "Ġprzez": 621,
      "ich": 622,
      "rzÄĻ": 623,
      "cu": 624,
      "Ġpat": 625,
      "io": 626,
      "dzia": 627,
      "Ġde": 628,
      "ji": 629,
      "sk": 630,
      "ĠjesteÅĽ": 631,
      "ĠÅĤ": 632,
      "Ġhaj": 633,
      "Ġse": 634,
      "Ġzawsze": 635,
      "Ġzna": 636,
      "Ġmoje": 637,
      "Ġteraz": 638,
      "nych": 639,
      "ego": 640,
      "Ġnaj": 641,
      "ah": 642,
      "wÃ³j": 643,
      "Ġpu": 644,
      "ĠÅĽwiat": 645,
      "Cho": 646,
      "kt": 647,
      "art": 648,
      "ĠH": 649,
      "pad": 650,
      "kach": 651,
      "Ġpie": 652,
      "aÅ¼": 653,
      "gdy": 654,
      "Ġpy": 655,
      "mo": 656,
      "Ġchcia": 657,
      "No": 658,
      "Ġsto": 659,
      "Ġzam": 660,
      "czÄħ": 661,
      "one": 662,
      "he": 663,
      "Od": 664,
      "Ġbar": 665,
      "mu": 666,
      "Ġwiesz": 667,
      "ĠI": 668,
      "ho": 669,
      "pe": 670,
      "emy": 671,
      "rzu": 672,
      "ĠL": 673,
      "ĠsÅĤo": 674,
      "ĠÅ¼eby": 675,
      "niej": 676,
      "Jestem": 677,
      "Ġpra": 678,
      "ĠpÅĤy": 679,
      "Ġim": 680,
      "Ġca": 681,
      "Ġbra": 682,
      "Ġpierdo": 683,
      "Ġog": 684,
      "rak": 685,
      "lÄħ": 686,
      "yba": 687,
      "iÄħgle": 688,
      "Ġjeszcze": 689,
      "iaj": 690,
      "Ġpraw": 691,
      "Ġhajs": 692,
      "Ġpoz": 693,
      "waÅĤ": 694,
      "Ro": 695,
      "ĠPo": 696,
      "ÅĤaÅĽ": 697,
      "Ġsy": 698,
      "aje": 699,
      "Te": 700,
      "fi": 701,
      "âĢħ": 702,
      "lan": 703,
      "Prze": 704,
      "ĠwiÄĻcej": 705,
      "ĠF": 706,
      "Ġzmie": 707,
      "isiaj": 708,
      "dzÄħ": 709,
      "Ġmor": 710,
      "Kiedy": 711,
      "ĠbyÅĤo": 712,
      "Ġnawet": 713,
      "bÄħ": 714,
      "bra": 715,
      "rzym": 716,
      "cja": 717,
      "Ġpar": 718,
      "ÅĤad": 719,
      "Å»e": 720,
      "we": 721,
      "kÄħ": 722,
      "co": 723,
      "asz": 724,
      "ĠO": 725,
      "lam": 726,
      "ach": 727,
      "ciÄħÅ¼": 728,
      "Ġhi": 729,
      "nym": 730,
      "gra": 731,
      "Ġzrobi": 732,
      "ĠmieÄĩ": 733,
      "ĠmnÄħ": 734,
      "Zn": 735,
      "Ġdro": 736,
      "Ġdzi": 737,
      "lem": 738,
      "ri": 739,
      "ĠbyÅĤ": 740,
      "nik": 741,
      "ĠznÃ³w": 742,
      "szcz": 743,
      "By": 744,
      "Ġjej": 745,
      "amiÄĻ": 746,
      "chÄĻ": 747,
      "ska": 748,
      "ĠâĢĵ": 749,
      "Ġznowu": 750,
      "Ġme": 751,
      "pu": 752,
      "niÄĻ": 753,
      "ĠkoÅĦ": 754,
      "Ġstar": 755,
      "Ġban": 756,
      "Ġlat": 757,
      "Ġru": 758,
      "Ġej": 759,
      "Ko": 760,
      "gu": 761,
      "ĠmyÅĽ": 762,
      "Ġchwi": 763,
      "ĠteÅ¼": 764,
      "owie": 765,
      "jeb": 766,
      "raj": 767,
      "du": 768,
      "baÄĩ": 769,
      "ĠdzieÅĦ": 770,
      "Ġnam": 771,
      "ĠrobiÄĻ": 772,
      "su": 773,
      "Ġal": 774,
      "daÄĩ": 775,
      "Ðµ": 776,
      "Wie": 777,
      "ĠrÄĻ": 778,
      "ĠJ": 779,
      "Ġludzi": 780,
      "cji": 781,
      "Ġsie": 782,
      "Ġsiebie": 783,
      "Ġtrze": 784,
      "Gdy": 785,
      "war": 786,
      "ĠniÅ¼": 787,
      "Ġr": 788,
      "ali": 789,
      "Ã³d": 790,
      "aÄĩ": 791,
      "Ġpot": 792,
      "Ġszy": 793,
      "Dla": 794,
      "es": 795,
      "Ġga": 796,
      "cen": 797,
      "ÅĤbym": 798,
      "MÃ³w": 799,
      "ania": 800,
      "Ġnigdy": 801,
      "ujÄħ": 802,
      "emu": 803,
      "res": 804,
      "ĠsÅĤu": 805,
      "os": 806,
      "Ġbe": 807,
      "Ġtro": 808,
      "ĠTo": 809,
      "Ġciebie": 810,
      "ĠchÅĤo": 811,
      "Le": 812,
      "Ġnich": 813,
      "Ġzd": 814,
      "chy": 815,
      "ĠchoÄĩ": 816,
      "!)": 817,
      "Ġzap": 818,
      "sp": 819,
      "Ġbie": 820,
      "ĠbÄĻdÄĻ": 821,
      "tam": 822,
      "ÅĽmy": 823,
      "ĠciÄħgle": 824,
      "Åļ": 825,
      "Ġmiej": 826,
      "czyÄĩ": 827,
      "ĠCi": 828,
      "ĠktÃ³ry": 829,
      "Ġdru": 830,
      "ÅĤam": 831,
      "chodzi": 832,
      "Ġstra": 833,
      "Ġtej": 834,
      "ĠzÅĤo": 835,
      "Ġdobrze": 836,
      "nij": 837,
      "eah": 838,
      "Ġsty": 839,
      "owe": 840,
      "Ġchcesz": 841,
      "pierda": 842,
      "sko": 843,
      "tÄĻ": 844,
      "ĠE": 845,
      "Ġpew": 846,
      "scy": 847,
      "Ġchyba": 848,
      "ĠwciÄħÅ¼": 849,
      "Å»y": 850,
      "ÅĤe": 851,
      "KaÅ¼": 852,
      "wiÄĻ": 853,
      "Ġblo": 854,
      "dze": 855,
      "Ġtutaj": 856,
      "Ġtwo": 857,
      "ĠmogÄĻ": 858,
      "Ġsi": 859,
      "Ġprzed": 860,
      "Czy": 861,
      "Ã³r": 862,
      "Ġswoje": 863,
      "ste": 864,
      "niÄħ": 865,
      "Ġzosta": 866,
      "cham": 867,
      "Ġyo": 868,
      "ĠcaÅĤy": 869,
      "ĠcaÅĤ": 870,
      "bu": 871,
      "ol": 872,
      "Ġjeb": 873,
      "czu": 874,
      "ing": 875,
      "ÅĤÄĻ": 876,
      "nÄħÄĩ": 877,
      "piej": 878,
      "Sz": 879,
      "Ġsko": 880,
      "Ġmamy": 881,
      "Ġkla": 882,
      "zd": 883,
      "ĠjÄħ": 884,
      "oÅĤ": 885,
      "tach": 886,
      "wam": 887,
      "Ġnap": 888,
      "Ġsamo": 889,
      "aka": 890,
      "Åģ": 891,
      "MoÅ¼e": 892,
      "ĠTy": 893,
      "ciaÅ¼": 894,
      "wÄĻ": 895,
      "noÅĽÄĩ": 896,
      "ap": 897,
      "Ġnad": 898,
      "ĠÅ¼ad": 899,
      "Ġdzisiaj": 900,
      "siÄħ": 901,
      "ĠCiÄĻ": 902,
      "ĠÅ¼yÄĩ": 903,
      "ciu": 904,
      "Ġkar": 905,
      "Ġmiejs": 906,
      "Ġwz": 907,
      "tki": 908,
      "tedy": 909,
      "Ġthe": 910,
      "Ġswo": 911,
      "rzÄħ": 912,
      "Wi": 913,
      "Ġcie": 914,
      "szyscy": 915,
      "liÅĽmy": 916,
      "nej": 917,
      "dzieÄĩ": 918,
      "Ġost": 919,
      "ĠduÅ¼": 920,
      "ĠwidzÄĻ": 921,
      "Ġkole": 922,
      "oo": 923,
      "iad": 924,
      "be": 925,
      "Ġry": 926,
      "Lu": 927,
      "dzy": 928,
      "ÅĤoÅĽÄĩ": 929,
      "ÅĤas": 930,
      "Ġnikt": 931,
      "Ġop": 932,
      "Ġwal": 933,
      "so": 934,
      "cam": 935,
      "Ġspa": 936,
      "dzo": 937,
      "Ġpow": 938,
      "Ġtaki": 939,
      "kur": 940,
      "jam": 941,
      "ĠN": 942,
      "waÅ¼": 943,
      "ÅĤÄħ": 944,
      "Ġnim": 945,
      "ĠBo": 946,
      "pak": 947,
      "ve": 948,
      "Ġwar": 949,
      "rÃ³b": 950,
      "ĠÅ¼ycia": 951,
      "rÄħ": 952,
      "ans": 953,
      "us": 954,
      "Wszyst": 955,
      "Ġwszystki": 956,
      "ĠchcÄħ": 957,
      "ChoÄĩ": 958,
      "szÄħ": 959,
      "cje": 960,
      "Tu": 961,
      "ĠczujÄĻ": 962,
      "ĠZ": 963,
      "kÃ³w": 964,
      "ĠV": 965,
      "Ġki": 966,
      "Ã³g": 967,
      "My": 968,
      "Ġrze": 969,
      "WiÄĻc": 970,
      "rud": 971,
      "Ġdalej": 972,
      "ud": 973,
      "DziÅĽ": 974,
      "Ġsm": 975,
      "Ġon": 976,
      "Ona": 977,
      "Ġjeden": 978,
      "Ġwas": 979,
      "Ġdzieci": 980,
      "mia": 981,
      "ĠPol": 982,
      "Przy": 983,
      "ĠmiaÅĤ": 984,
      "tÃ³w": 985,
      "low": 986,
      "ĠktoÅĽ": 987,
      "Ġok": 988,
      "Ġludzie": 989,
      "ĠsÅĤy": 990,
      "ÅĤaÅĽnie": 991,
      "gie": 992,
      "chaÄĩ": 993,
      "Ġsen": 994,
      "ĠmiaÅĤem": 995,
      "Ġwer": 996,
      "Ġkrzy": 997,
      "ĠtrochÄĻ": 998,
      "Ej": 999,
      "ÅĤowie": 1000,
      "Ġkom": 1001,
      "Ġpierw": 1002,
      "KaÅ¼dy": 1003,
      "Ġdwa": 1004,
      "uk": 1005,
      "ĠgdzieÅĽ": 1006,
      "it": 1007,
      "liÄĩ": 1008,
      "Ġmoja": 1009,
      "ed": 1010,
      "Ġtyle": 1011,
      "Ġdaj": 1012,
      "Tylko": 1013,
      "ĠpiÄĻ": 1014,
      "niÄĩ": 1015,
      "waj": 1016,
      "ĠmajÄħ": 1017,
      "Ġdy": 1018,
      "lep": 1019,
      "biÄĩ": 1020,
      "Ġbardzo": 1021,
      "Ġoczy": 1022,
      "Ġmusi": 1023,
      "Ġkie": 1024,
      "ĠkiedyÅĽ": 1025,
      "Ta": 1026,
      "Ġdziw": 1027,
      "Ġv": 1028,
      "Ġjakby": 1029,
      "ChcÄĻ": 1030,
      "Ġpotem": 1031,
      "Ġha": 1032,
      "ÅĤÃ³w": 1033,
      "Ġkolej": 1034,
      "tka": 1035,
      "Ġgru": 1036,
      "ĠktÃ³re": 1037,
      "ĠÅĽwie": 1038,
      "ĠtÄĻ": 1039,
      "wÄħ": 1040,
      "ĠmÅĤo": 1041,
      "Ġho": 1042,
      "Ġkre": 1043,
      "chodzÄĻ": 1044,
      "szed": 1045,
      "ĠmÃ³wiÄħ": 1046,
      "ran": 1047,
      "gry": 1048,
      "ery": 1049,
      "cieÅ¼": 1050,
      "Ġfor": 1051,
      "kÅĤad": 1052,
      "ll": 1053,
      "and": 1054,
      "Ġtakie": 1055,
      "zu": 1056,
      "rza": 1057,
      "ĠbyÅĤem": 1058,
      "cznie": 1059,
      "Ġbli": 1060,
      "chu": 1061,
      "Ġprob": 1062,
      "Ġchodzi": 1063,
      "Ġwa": 1064,
      "ĠgÅĤu": 1065,
      "ĠpÅĤa": 1066,
      "Ġnoc": 1067,
      "Ġwtedy": 1068,
      "rÃ³Å¼": 1069,
      "Ġszyb": 1070,
      "ĠpiÄĻk": 1071,
      "pierdala": 1072,
      "Ġuli": 1073,
      "?)": 1074,
      "ard": 1075,
      "Ġzak": 1076,
      "cer": 1077,
      "nu": 1078,
      "dÅ¼": 1079,
      "Teraz": 1080,
      "Ġwra": 1081,
      "JeÅĽli": 1082,
      "ĠpamiÄĻ": 1083,
      "Kto": 1084,
      "Ġpas": 1085,
      "siÄĻ": 1086,
      "Ma": 1087,
      "Ġklu": 1088,
      "ĠgÅĤowie": 1089,
      "tego": 1090,
      "orÄĻ": 1091,
      "Ã³l": 1092,
      "ĠszczÄĻ": 1093,
      "ha": 1094,
      "Czas": 1095,
      "ĠpeÅĤ": 1096,
      "pÄĻ": 1097,
      "Ġpan": 1098,
      "ang": 1099,
      "wiam": 1100,
      "waÅĤem": 1101,
      "den": 1102,
      "ir": 1103,
      "ĠmuszÄĻ": 1104,
      "ģŁ": 1105,
      "âģŁ": 1106,
      "ĠMa": 1107,
      "ĠweÅº": 1108,
      "Ġhip": 1109,
      "czym": 1110,
      "Ġtwa": 1111,
      "Ġbym": 1112,
      "Ġstyl": 1113,
      "Ġalbo": 1114,
      "ĠCiebie": 1115,
      "JuÅ¼": 1116,
      "dzisz": 1117,
      "ee": 1118,
      "ĠjeÅĽli": 1119,
      "Ġtr": 1120,
      "czej": 1121,
      "Ġlata": 1122,
      "ĠgÃ³": 1123,
      "Ġcze": 1124,
      "pra": 1125,
      "ĠkrÄĻ": 1126,
      "ĠtwÃ³j": 1127,
      "Ġpal": 1128,
      "Ġtrzym": 1129,
      "piÄĻ": 1130,
      "ona": 1131,
      "ĠtaÅĦ": 1132,
      "len": 1133,
      "rach": 1134,
      "Ġczym": 1135,
      "Ġdom": 1136,
      "Ġlubi": 1137,
      "),": 1138,
      "Ġbrak": 1139,
      "Ġpierdol": 1140,
      "Ġtrzeba": 1141,
      "Å¼dÅ¼": 1142,
      "Wszystko": 1143,
      "ĠpÄĻ": 1144,
      "Ġostat": 1145,
      "ary": 1146,
      "Chcia": 1147,
      "ĠmÃ³wiÄĻ": 1148,
      "zi": 1149,
      "ĠaÅ¼": 1150,
      "Ġprz": 1151,
      "ĠczÅĤowie": 1152,
      "Wiem": 1153,
      "Ġserce": 1154,
      "Ġmoich": 1155,
      "Ġdomu": 1156,
      "stÄĻ": 1157,
      "dziej": 1158,
      "Ġpoka": 1159,
      "Ġmog": 1160,
      "Ġdaw": 1161,
      "pierdo": 1162,
      "Ã³Å¼": 1163,
      "ĠpÃ³ÅĤ": 1164,
      "Ġlecz": 1165,
      "Ġrodzi": 1166,
      "nek": 1167,
      "ke": 1168,
      "Ġzoba": 1169,
      "ujesz": 1170,
      "Ġwyj": 1171,
      "ĠparÄĻ": 1172,
      "JesteÅĽ": 1173,
      "ĠmoÅ¼esz": 1174,
      "ĠtÄħ": 1175,
      "Ġ2": 1176,
      "Ġkum": 1177,
      "ĠchÅĤopak": 1178,
      "Gdzie": 1179,
      "Ġnowy": 1180,
      "Ġmoim": 1181,
      "Mi": 1182,
      "Ġkim": 1183,
      "Ġbit": 1184,
      "Ġmuzy": 1185,
      "od": 1186,
      "ciÄĩ": 1187,
      "Ġlepiej": 1188,
      "ĠÅ¼yciu": 1189,
      "Ġsumie": 1190,
      "Pod": 1191,
      "wczy": 1192,
      "Ġpyta": 1193,
      "Ġrazem": 1194,
      "dal": 1195,
      "ĠpÃ³": 1196,
      "szÅĤo": 1197,
      "rr": 1198,
      "ĠĠ": 1199,
      "ĠwrÃ³": 1200,
      "Mia": 1201,
      "Ġspraw": 1202,
      "rod": 1203,
      "Ġwszyscy": 1204,
      "ĠÅĽmie": 1205,
      "nego": 1206,
      "St": 1207,
      "skie": 1208,
      "Znowu": 1209,
      "ĠmyÅĽli": 1210,
      "ĠkoÅĦcu": 1211,
      "ĠNie": 1212,
      "Ġstro": 1213,
      "ĠwÅĤaÅĽnie": 1214,
      "niesz": 1215,
      "zna": 1216,
      "nem": 1217,
      "wiÄĩ": 1218,
      "Ġbro": 1219,
      "Ġzw": 1220,
      "Ġczego": 1221,
      "Ġfi": 1222,
      "Ġsza": 1223,
      "let": 1224,
      "anim": 1225,
      "Ġyeah": 1226,
      "Ġscen": 1227,
      "Ġskur": 1228,
      "Pier": 1229,
      "sem": 1230,
      "Å¼ÄĻ": 1231,
      "Chce": 1232,
      "Ġmordo": 1233,
      "hop": 1234,
      "Ġgwia": 1235,
      "cjÄĻ": 1236,
      "ĠmieÅĽcie": 1237,
      "eni": 1238,
      "Ġmoc": 1239,
      "Ġfa": 1240,
      "Ġczar": 1241,
      "Ġkro": 1242,
      "Ġfu": 1243,
      "mier": 1244,
      "ĠmaÅĤo": 1245,
      "Ġwszystkie": 1246,
      "Ġona": 1247,
      "Ġfaj": 1248,
      "Ġwiele": 1249,
      "dziÄĩ": 1250,
      "Ġtwoje": 1251,
      "byÅĽ": 1252,
      "ĠstÄħd": 1253,
      "ĠkrÃ³": 1254,
      "ĠJa": 1255,
      "cza": 1256,
      "stu": 1257,
      "Ġrzeczy": 1258,
      "Ġznam": 1259,
      "Å»ycie": 1260,
      "ĠduÅ¼o": 1261,
      "Ġtem": 1262,
      "Ġlep": 1263,
      "Ġwol": 1264,
      "Ġau": 1265,
      "enia": 1266,
      "der": 1267,
      "Ġczasem": 1268,
      "ĠskoÅĦ": 1269,
      "Ġdzia": 1270,
      "dziaÅĤem": 1271,
      "ĠchociaÅ¼": 1272,
      "ĠktÃ³r": 1273,
      "Ġot": 1274,
      "fon": 1275,
      "ĠdÅĤu": 1276,
      "fe": 1277,
      "Ġbla": 1278,
      "stwo": 1279,
      "Ġth": 1280,
      "aa": 1281,
      "Ġkli": 1282,
      "ÅĽcia": 1283,
      "Ġile": 1284,
      "Ġniej": 1285,
      "Ġczasu": 1286,
      "ĠmoÅ¼": 1287,
      "ĠsobÄħ": 1288,
      "Ġpla": 1289,
      "Ġdobry": 1290,
      "Ġrzu": 1291,
      "Ġwszystkich": 1292,
      "Ġcy": 1293,
      "Pro": 1294,
      "czysz": 1295,
      "pro": 1296,
      "tek": 1297,
      "Ten": 1298,
      "gar": 1299,
      "ĠczÄĻ": 1300,
      "dem": 1301,
      "Ġkil": 1302,
      "se": 1303,
      "Ġleci": 1304,
      "ge": 1305,
      "gh": 1306,
      "Ġkas": 1307,
      "lki": 1308,
      "ciÄħg": 1309,
      "czny": 1310,
      "niec": 1311,
      "BÄĻ": 1312,
      "dam": 1313,
      "Ġproblem": 1314,
      "aki": 1315,
      "Ġmar": 1316,
      "tor": 1317,
      "Ġpiz": 1318,
      "uka": 1319,
      "Ġkoncer": 1320,
      "Bez": 1321,
      "ÅĽmie": 1322,
      "Nawet": 1323,
      "Ġyou": 1324,
      "Ġgad": 1325,
      "rzyÄĩ": 1326,
      "MÃ³j": 1327,
      "Ġumie": 1328,
      "Ġzmieni": 1329,
      "cki": 1330,
      "ler": 1331,
      "tr": 1332,
      "ajÄĻ": 1333,
      "Pi": 1334,
      "Ġwsp": 1335,
      "dni": 1336,
      "Ġszko": 1337,
      "cem": 1338,
      "Ġwia": 1339,
      "ĠciÄĻÅ¼": 1340,
      "ĠĊ": 1341,
      "Ġsa": 1342,
      "ĠsÅĤowa": 1343,
      "RobiÄĻ": 1344,
      "rzeb": 1345,
      "jeÅ¼dÅ¼": 1346,
      "biera": 1347,
      "Ġtele": 1348,
      "sia": 1349,
      "ĠCh": 1350,
      "Ġspra": 1351,
      "ĠtÅĤu": 1352,
      "Ġsze": 1353,
      "Ġdw": 1354,
      "dza": 1355,
      "Ġce": 1356,
      "Ġczu": 1357,
      "Ġjut": 1358,
      "ĠrobiÄĩ": 1359,
      "per": 1360,
      "Ġnami": 1361,
      "czo": 1362,
      "wiÄħ": 1363,
      "Moje": 1364,
      "dnie": 1365,
      "tro": 1366,
      "szych": 1367,
      "cach": 1368,
      "eb": 1369,
      "ĠgÃ³w": 1370,
      "Ġsek": 1371,
      "jeba": 1372,
      "Ġobo": 1373,
      "staÄĩ": 1374,
      "ĠchciaÅĤem": 1375,
      "Ġjakbym": 1376,
      "Ġmiasto": 1377,
      "Ġplan": 1378,
      "ĠwÅĤas": 1379,
      "iast": 1380,
      "ng": 1381,
      "Ġdni": 1382,
      "Dzie": 1383,
      "Ġnow": 1384,
      "Ġgram": 1385,
      "Ra": 1386,
      "tÄħ": 1387,
      "Ġtru": 1388,
      "nawi": 1389,
      "Mu": 1390,
      "Pat": 1391,
      "niem": 1392,
      "Ġtrzy": 1393,
      "ĠniÄħ": 1394,
      "wysy": 1395,
      "bÄĻ": 1396,
      "Ġzwy": 1397,
      "dziesz": 1398,
      "Ġstary": 1399,
      "Wiesz": 1400,
      "ĠsÅĤucha": 1401,
      "Ġjedy": 1402,
      "ĠTe": 1403,
      "ĠzrobiÄĩ": 1404,
      "ster": 1405,
      "Da": 1406,
      "Ġnum": 1407,
      "Dzisiaj": 1408,
      "ĠkÅĤam": 1409,
      "stÄĻp": 1410,
      "mat": 1411,
      "Ġniech": 1412,
      "Ġgro": 1413,
      "sÃ³w": 1414,
      "jebane": 1415,
      "dziaÅĤ": 1416,
      "KiedyÅĽ": 1417,
      "Ġdziewczy": 1418,
      "ĠlubiÄĻ": 1419,
      "Ġczeka": 1420,
      "kÃ³ÅĤ": 1421,
      "rawdÄĻ": 1422,
      "Ġkr": 1423,
      "ĠswÃ³j": 1424,
      "Ġnawi": 1425,
      "ĠchciaÅĤ": 1426,
      "emo": 1427,
      "We": 1428,
      "Ġwyg": 1429,
      "MÃ³wi": 1430,
      "kro": 1431,
      "qu": 1432,
      "Ġznaj": 1433,
      "czego": 1434,
      "nÄħÅĤ": 1435,
      "Ġjako": 1436,
      "ĠsÅĤa": 1437,
      "Pa": 1438,
      "Ca": 1439,
      "Masz": 1440,
      "Ġfo": 1441,
      "mal": 1442,
      "tra": 1443,
      "Ġziomek": 1444,
      "Ġzas": 1445,
      "Ġam": 1446,
      "Ã³z": 1447,
      "kam": 1448,
      "Ġpis": 1449,
      "szam": 1450,
      "Ġpor": 1451,
      "Sam": 1452,
      "Ġzmienia": 1453,
      "Ġwam": 1454,
      "Ġwkur": 1455,
      "woni": 1456,
      "Ġit": 1457,
      "mÄĻ": 1458,
      "rez": 1459,
      "Ġhej": 1460,
      "tnie": 1461,
      "Ġmili": 1462,
      "robi": 1463,
      "Ġpl": 1464,
      "Ġwbi": 1465,
      "Ġrok": 1466,
      "pada": 1467,
      "ĠMi": 1468,
      "Zo": 1469,
      "prze": 1470,
      "ss": 1471,
      "tak": 1472,
      "ĠbyÅĤa": 1473,
      "Ġwym": 1474,
      "Ġsku": 1475,
      "Zawsze": 1476,
      "iel": 1477,
      "Ġdaje": 1478,
      "'s": 1479,
      "Ġar": 1480,
      "koj": 1481,
      "sied": 1482,
      "ĠÅĽmier": 1483,
      "dziemy": 1484,
      "Bi": 1485,
      "ramy": 1486,
      "Ġmart": 1487,
      "Nigdy": 1488,
      "ul": 1489,
      "Ġmarze": 1490,
      "Ġucie": 1491,
      "ff": 1492,
      "pis": 1493,
      "ĠU": 1494,
      "chaj": 1495,
      "tal": 1496,
      "tych": 1497,
      "ks": 1498,
      "th": 1499,
      "Ġpsy": 1500,
      "cÃ³w": 1501,
      "rzeÄĩ": 1502,
      "Ġdziec": 1503,
      "lÄħda": 1504,
      "Ġszczy": 1505,
      "kÅĤa": 1506,
      "ĠjakiÅĽ": 1507,
      "ii": 1508,
      "ĠjebaÄĩ": 1509,
      "Ġzabi": 1510,
      "Ġsh": 1511,
      "star": 1512,
      "Ġtyp": 1513,
      "ĠchwilÄĻ": 1514,
      "nd": 1515,
      "ĠmiÅĤoÅĽÄĩ": 1516,
      "tery": 1517,
      "ĠdÅĤo": 1518,
      "Ġfil": 1519,
      "czyÅĤ": 1520,
      "Nic": 1521,
      "Ġtobie": 1522,
      "Ġzaraz": 1523,
      "Ġoni": 1524,
      "Ġjakie": 1525,
      "CiÄħgle": 1526,
      "kÃ³j": 1527,
      "Ġtek": 1528,
      "ĠktÃ³rych": 1529,
      "Ġnasz": 1530,
      "Ġnajlep": 1531,
      "ĠpieniÄħ": 1532,
      "Ġdi": 1533,
      "ĠkawaÅĤ": 1534,
      "zo": 1535,
      "ĠmyÅĽlÄĻ": 1536,
      "ĠÅº": 1537,
      "nach": 1538,
      "jesz": 1539,
      "ĠprzecieÅ¼": 1540,
      "ĠpÃ³Åº": 1541,
      "tel": 1542,
      "Yo": 1543,
      "kaz": 1544,
      "bli": 1545,
      "Ġl": 1546,
      "noÅĽci": 1547,
      "ĠnaprawdÄĻ": 1548,
      "szka": 1549,
      "ĠÅĤat": 1550,
      "raÅ¼": 1551,
      "rzysz": 1552,
      "Ġzamk": 1553,
      "Kur": 1554,
      "Powie": 1555,
      "naj": 1556,
      "ti": 1557,
      "Ġak": 1558,
      "Ġczek": 1559,
      "Wo": 1560,
      "Ġziem": 1561,
      "rÃ³d": 1562,
      "Ġszans": 1563,
      "Ġraper": 1564,
      "szÄĻdzie": 1565,
      "Ġdobre": 1566,
      "Ġzapom": 1567,
      "erw": 1568,
      "Ġwpad": 1569,
      "rat": 1570,
      "man": 1571,
      "Ġpoli": 1572,
      "lach": 1573,
      "Ġpowiedz": 1574,
      "giem": 1575,
      "ChociaÅ¼": 1576,
      "ono": 1577,
      "Ġmusisz": 1578,
      "Ġdupy": 1579,
      "Ġup": 1580,
      "Ġbia": 1581,
      "ĠÄĩ": 1582,
      "Ġdam": 1583,
      "czne": 1584,
      "Chcesz": 1585,
      "Ġpol": 1586,
      "Ġgrze": 1587,
      "Ġobok": 1588,
      "ĠÅĤeb": 1589,
      "Ġsia": 1590,
      "Ġgi": 1591,
      "byt": 1592,
      "Ġjedno": 1593,
      "sh": 1594,
      "ust": 1595,
      "Ġszcze": 1596,
      "ĠidÄĻ": 1597,
      "Ġflow": 1598,
      "Ġpomy": 1599,
      "gÄħ": 1600,
      "Ġx": 1601,
      "ĠwaÅ¼": 1602,
      "ly": 1603,
      "Ġstud": 1604,
      "ĠbyÅĽ": 1605,
      "Ġprzej": 1606,
      "ĠpatrzÄĻ": 1607,
      "Ġdrz": 1608,
      "ĠtobÄħ": 1609,
      "Ġkocha": 1610,
      "ajÄħc": 1611,
      "ĠuÅĽmie": 1612,
      "Ġfan": 1613,
      "szedÅĤ": 1614,
      "kry": 1615,
      "gam": 1616,
      "ake": 1617,
      "Ġpom": 1618,
      "zie": 1619,
      "Jeszcze": 1620,
      "wych": 1621,
      "Roz": 1622,
      "nika": 1623,
      "Ġpierwszy": 1624,
      "Naj": 1625,
      "piÄĩ": 1626,
      "\",": 1627,
      "Zam": 1628,
      "Ġ1": 1629,
      "ĠbÄĻdÄħ": 1630,
      "Ġum": 1631,
      "ĠpiÄĻÄĩ": 1632,
      "Ġdawno": 1633,
      "ĠmiÄĻ": 1634,
      "Å¼yÄĩ": 1635,
      "Ġsmut": 1636,
      "Ġszybko": 1637,
      "nt": 1638,
      "Ġple": 1639,
      "ĠproszÄĻ": 1640,
      "Ġnumer": 1641,
      "Ġocz": 1642,
      "Ġjego": 1643,
      "ort": 1644,
      "Ġne": 1645,
      "ĠPa": 1646,
      "owo": 1647,
      "men": 1648,
      "Ġprzyja": 1649,
      "end": 1650,
      "Ġusta": 1651,
      "ĠbÄĻdziesz": 1652,
      "Ġsprze": 1653,
      "ÄħdÅº": 1654,
      "lar": 1655,
      "wit": 1656,
      "Ġfe": 1657,
      "ĠMo": 1658,
      "Ġresz": 1659,
      "Ġskurwysy": 1660,
      "sÅĤu": 1661,
      "Ġniczym": 1662,
      "Ġmojej": 1663,
      "gram": 1664,
      "Ġsuk": 1665,
      "Ġpewnie": 1666,
      "orÄħ": 1667,
      "ina": 1668,
      "Ġdrugi": 1669,
      "stem": 1670,
      "ÅĽnie": 1671,
      "Chyba": 1672,
      "Rap": 1673,
      "stan": 1674,
      "niam": 1675,
      "ĠcaÅĤe": 1676,
      "Ġtwarz": 1677,
      "Ġjutro": 1678,
      "ĠwÃ³": 1679,
      "Ġosied": 1680,
      "Å»eby": 1681,
      "Ġodp": 1682,
      "Ġprawdzi": 1683,
      "Ġstan": 1684,
      "Pierdo": 1685,
      "sÅĤ": 1686,
      "ĠrÃ³Å¼": 1687,
      "Ġprawda": 1688,
      "Przez": 1689,
      "ĠÅĽrod": 1690,
      "ĠâĢĶ": 1691,
      "ZnÃ³w": 1692,
      "Ġpr": 1693,
      "Ġkogo": 1694,
      "umie": 1695,
      "Ġani": 1696,
      "szczÄĻ": 1697,
      "omo": 1698,
      "ĠiÅĽÄĩ": 1699,
      "Ġwej": 1700,
      "Ġkra": 1701,
      "kÄħd": 1702,
      "eÅĤ": 1703,
      "JebaÄĩ": 1704,
      "ĠktÃ³rzy": 1705,
      "ĠrÄĻce": 1706,
      "nam": 1707,
      "Ġjo": 1708,
      "Ġboli": 1709,
      "Ġnocy": 1710,
      "âĢĿ": 1711,
      "owi": 1712,
      "Ġkart": 1713,
      "Dob": 1714,
      "trz": 1715,
      "wki": 1716,
      "gÃ³w": 1717,
      "ano": 1718,
      "Ġof": 1719,
      "ĠmojÄħ": 1720,
      "ĠCo": 1721,
      "Ġpozna": 1722,
      "Ġsztu": 1723,
      "Ġlek": 1724,
      "Ġprzyj": 1725,
      "Ġznasz": 1726,
      "ten": 1727,
      "Ġznik": 1728,
      "CzujÄĻ": 1729,
      "trzym": 1730,
      "ĠÅĽcie": 1731,
      "Ġzamie": 1732,
      "up": 1733,
      "Ġnowe": 1734,
      "ĠmÄĻ": 1735,
      "ĠkaÅ¼dym": 1736,
      "Ġbardziej": 1737,
      "Ġtrud": 1738,
      "Ġwro": 1739,
      "Ġkobie": 1740,
      "lot": 1741,
      "bacz": 1742,
      "âĢĻ": 1743,
      "Ġpomo": 1744,
      "Mie": 1745,
      "Ġdwie": 1746,
      "Ġlub": 1747,
      "czoraj": 1748,
      "Ba": 1749,
      "Ã³b": 1750,
      "Ġdrzwi": 1751,
      "Czasem": 1752,
      "Re": 1753,
      "ĠNo": 1754,
      "wiat": 1755,
      "ĠÅĽwiata": 1756,
      "KtÃ³": 1757,
      "ber": 1758,
      "Ġostatni": 1759,
      "Ġzwro": 1760,
      "rom": 1761,
      "ĠÅĽcia": 1762,
      "ĠmÃ³g": 1763,
      "Ġnienawi": 1764,
      "Ġkraj": 1765,
      "anych": 1766,
      "stwa": 1767,
      "WeÅº": 1768,
      "Ġkosz": 1769,
      "Ġplu": 1770,
      "Ġkoniec": 1771,
      "ĠrobiÄħ": 1772,
      "Ġnadal": 1773,
      "Ġrym": 1774,
      "Ġkrew": 1775,
      "ĠmoÅ¼na": 1776,
      "MÃ³wiÄħ": 1777,
      "Ġauto": 1778,
      "00": 1779,
      "Ġska": 1780,
      "Ġmaj": 1781,
      "ree": 1782,
      "Lecz": 1783,
      "Ġcia": 1784,
      "daÅĤ": 1785,
      "Nikt": 1786,
      "peÅĤ": 1787,
      "gan": 1788,
      "rew": 1789,
      "laÅĤem": 1790,
      "Ġgwiaz": 1791,
      "ĠktÃ³rym": 1792,
      "kÅĤo": 1793,
      "pach": 1794,
      "Ġrazy": 1795,
      "prez": 1796,
      "wanie": 1797,
      "uu": 1798,
      "Ġtaka": 1799,
      "ash": 1800,
      "Sie": 1801,
      "bieram": 1802,
      "ĠbiorÄĻ": 1803,
      "Ġpotra": 1804,
      "ĠciÄħ": 1805,
      "Ġraczej": 1806,
      "Ġrozumie": 1807,
      "Ġbrat": 1808,
      "di": 1809,
      "krÄĻ": 1810,
      "ver": 1811,
      "Ã³le": 1812,
      "Ġczemu": 1813,
      "ĠmaÅĤa": 1814,
      "elan": 1815,
      "ĠsÅĤoÅĦ": 1816,
      "ĠswojÄħ": 1817,
      "ĠjadÄĻ": 1818,
      "Al": 1819,
      "PamiÄĻ": 1820,
      "Ġsmak": 1821,
      "Ġgar": 1822,
      "nes": 1823,
      "Ġhe": 1824,
      "Ġwarto": 1825,
      "Ġszuk": 1826,
      "sku": 1827,
      "szym": 1828,
      "stor": 1829,
      "ros": 1830,
      "Ġgu": 1831,
      "Ġdosta": 1832,
      "Ġpun": 1833,
      "Ġzanim": 1834,
      "Ġdym": 1835,
      "Ġgry": 1836,
      "Ġsame": 1837,
      "ip": 1838,
      "Ġzg": 1839,
      "Ġprostu": 1840,
      "Ġsukce": 1841,
      "wÃ³r": 1842,
      "iÄĻki": 1843,
      "Ġwiel": 1844,
      "Ġrapu": 1845,
      "Ludzie": 1846,
      "Wszyscy": 1847,
      "oh": 1848,
      "Ġ#": 1849,
      "Ġidzie": 1850,
      "Ġtemat": 1851,
      "usz": 1852,
      "rek": 1853,
      "ĠwokÃ³ÅĤ": 1854,
      "Moja": 1855,
      "Å¼ej": 1856,
      "sÄĻ": 1857,
      "Ġbank": 1858,
      "Ġmiejsce": 1859,
      "ple": 1860,
      "ĠpÅĤo": 1861,
      "Ġcha": 1862,
      "Ġogar": 1863,
      "ĠzrobiÄĻ": 1864,
      "Powiedz": 1865,
      "Sto": 1866,
      "chem": 1867,
      "rok": 1868,
      "Ġpatrz": 1869,
      "Ġsyf": 1870,
      "zÄĻ": 1871,
      "ĠsÅĤÃ³w": 1872,
      "Ġkam": 1873,
      "ĠczÅĤowiek": 1874,
      "Ġgot": 1875,
      "Potem": 1876,
      "Ġszma": 1877,
      "ĠogÃ³le": 1878,
      "'m": 1879,
      "gnie": 1880,
      "ze": 1881,
      "Ġnimi": 1882,
      "ĠstaÄĩ": 1883,
      "Ġchuja": 1884,
      "fa": 1885,
      "Ġzda": 1886,
      "Ġwszystkim": 1887,
      "ciÅĤ": 1888,
      "paÅĤ": 1889,
      "hat": 1890,
      "Å¼a": 1891,
      "Ġstop": 1892,
      "sce": 1893,
      "Ġnasze": 1894,
      "bia": 1895,
      "Ġpowo": 1896,
      "ĠgÅĤowÄĻ": 1897,
      "ĠszczÄĻÅĽcie": 1898,
      "pom": 1899,
      "stro": 1900,
      "Ġos": 1901,
      "CaÅĤy": 1902,
      "ot": 1903,
      "stra": 1904,
      "Ġblok": 1905,
      "ÅĽniej": 1906,
      "Sp": 1907,
      "Ziom": 1908,
      "ÅĤuÅ¼": 1909,
      "czki": 1910,
      "lisz": 1911,
      "ĠÅ¼aden": 1912,
      "Ġkilka": 1913,
      "Yeah": 1914,
      "arsza": 1915,
      "niu": 1916,
      "lÄħd": 1917,
      "Ġkolo": 1918,
      "fo": 1919,
      "ĠÅĤy": 1920,
      "tasz": 1921,
      "Ġdzieciak": 1922,
      "ĠmÅĤody": 1923,
      "siad": 1924,
      "Ġand": 1925,
      "ieÅĦ": 1926,
      "ĠwiÄĻk": 1927,
      "Ġmelan": 1928,
      "Ġnaz": 1929,
      "ĠmÃ³wiÄĩ": 1930,
      "Ġzaczy": 1931,
      "paÄĩ": 1932,
      "Ġkurwo": 1933,
      "Ġgodzi": 1934,
      "ÅĤoÅĽci": 1935,
      "now": 1936,
      "ÅĤody": 1937,
      "szedÅĤem": 1938,
      "MyÅĽ": 1939,
      "Ġwsty": 1940,
      "ĠzÅĤa": 1941,
      "skich": 1942,
      "ĠpamiÄĻtam": 1943,
      "Ġdnia": 1944,
      "strze": 1945,
      "Ġniez": 1946,
      "Niech": 1947,
      "ĠBa": 1948,
      "Ġmiasta": 1949,
      "ĠzdjÄĻ": 1950,
      "Ġpewno": 1951,
      "tkÄĻ": 1952,
      "Ġpole": 1953,
      "dzien": 1954,
      "ĠMar": 1955,
      "Daj": 1956,
      "Ze": 1957,
      "Ġzja": 1958,
      "Ġserca": 1959,
      "lni": 1960,
      "Ġpre": 1961,
      "Ġoj": 1962,
      "In": 1963,
      "wali": 1964,
      "dach": 1965,
      "ĠlecÄĻ": 1966,
      "Ġwraca": 1967,
      "stÄħ": 1968,
      "Ġzdro": 1969,
      "Ġnor": 1970,
      "Ġzim": 1971,
      "raÄĩ": 1972,
      "Ġoh": 1973,
      "czek": 1974,
      "Mor": 1975,
      "Ã³ch": 1976,
      "Ġzawi": 1977,
      "Ġkocham": 1978,
      "Ġfak": 1979,
      "Jed": 1980,
      "Ġpowiem": 1981,
      "wym": 1982,
      "ĠRo": 1983,
      "Ġpotrzeb": 1984,
      "pÅĤy": 1985,
      "Ġzm": 1986,
      "staje": 1987,
      "isz": 1988,
      "Ġdrugie": 1989,
      "pia": 1990,
      "gnÄĻ": 1991,
      "Ġpen": 1992,
      "jebany": 1993,
      "nak": 1994,
      "ere": 1995,
      "Ġdlatego": 1996,
      "ĠÅºle": 1997,
      "piÄħ": 1998,
      "Ġwali": 1999,
      "Ġcel": 2000,
      "Ġdum": 2001,
      "Ġpara": 2002,
      "cemy": 2003,
      "ĠwÄħ": 2004,
      "ĠâĢŀ": 2005,
      "ĠĠĠĠ": 2006,
      "Ġbut": 2007,
      "ĠdaÄĩ": 2008,
      "Ġkurwy": 2009,
      "Mamy": 2010,
      "ciÄĻ": 2011,
      "cisz": 2012,
      "kle": 2013,
      "ĠjesteÅĽmy": 2014,
      "MoÅ¼esz": 2015,
      "WciÄħÅ¼": 2016,
      "Ġlos": 2017,
      "SiÄĻ": 2018,
      "Ġnagra": 2019,
      "ron": 2020,
      "ĠgÅĤowy": 2021,
      "ĠpierdolÄĻ": 2022,
      "zdro": 2023,
      "MiaÅĤem": 2024,
      "ment": 2025,
      "cieli": 2026,
      "Kurwa": 2027,
      "Ġzdo": 2028,
      "nad": 2029,
      "ĠbÄħdÅº": 2030,
      "ĠgÃ³wno": 2031,
      "Py": 2032,
      "ÅĤym": 2033,
      "ĠwszÄĻdzie": 2034,
      "Ġfar": 2035,
      "ren": 2036,
      "Ġwielu": 2037,
      "ĠwierzÄĻ": 2038,
      "che": 2039,
      "ont": 2040,
      "Ġdis": 2041,
      "Ġbrud": 2042,
      "Ġjaki": 2043,
      "ĠwiedzieÄĩ": 2044,
      "ĠpÃ³Åºniej": 2045,
      "pki": 2046,
      "Ġpoko": 2047,
      "zumie": 2048,
      "ĠbyÅĤy": 2049,
      "Ġemo": 2050,
      "ĠÅĽwi": 2051,
      "Ġdeszcz": 2052,
      "lip": 2053,
      "On": 2054,
      "ĠpÃ³j": 2055,
      "Ġpora": 2056,
      "ĠKa": 2057,
      "Two": 2058,
      "chaÅĤ": 2059,
      "Ġwersy": 2060,
      "dÃ³w": 2061,
      "Ġdra": 2062,
      "Ġprzysz": 2063,
      "Ġzamiast": 2064,
      "rÃ³w": 2065,
      "ĠdoÅĽÄĩ": 2066,
      "WidzÄĻ": 2067,
      "'t": 2068,
      "Ġfur": 2069,
      "ĠIn": 2070,
      "enty": 2071,
      "pierdalam": 2072,
      "Ġsos": 2073,
      "Ġus": 2074,
      "Ġjebany": 2075,
      "Ġkolejny": 2076,
      "ĠpiszÄĻ": 2077,
      "ĠgÅĤos": 2078,
      "ĠTede": 2079,
      "starczy": 2080,
      "jemy": 2081,
      "pli": 2082,
      "ĠwÅĤo": 2083,
      "Ġman": 2084,
      "aja": 2085,
      "jebaÄĩ": 2086,
      "ĠÅ¼yjÄĻ": 2087,
      "onych": 2088,
      "ĠcaÅĤÄħ": 2089,
      "tur": 2090,
      "Ġniego": 2091,
      "Ġniko": 2092,
      "Ġryj": 2093,
      "WA": 2094,
      "laÄĩ": 2095,
      "Dlatego": 2096,
      "pierdol": 2097,
      "lny": 2098,
      "wiÄĻk": 2099,
      "sach": 2100,
      "Ġhistor": 2101,
      "Ġszam": 2102,
      "ĠgÃ³rÄĻ": 2103,
      "La": 2104,
      "Chuj": 2105,
      "ĠspaÄĩ": 2106,
      "Ġbom": 2107,
      "Ġszuka": 2108,
      "dob": 2109,
      "ĠSz": 2110,
      "ĠdwÃ³ch": 2111,
      "nisz": 2112,
      "taÄĩ": 2113,
      "ĠkaÅ¼de": 2114,
      "Ġvi": 2115,
      "Ġor": 2116,
      "Ġfej": 2117,
      "ĠczÄĻsto": 2118,
      "Ġjoin": 2119,
      "Ġtwoja": 2120,
      "Ġzmia": 2121,
      "ĠbÅĤÄĻ": 2122,
      "Ġtor": 2123,
      "pisz": 2124,
      "staw": 2125,
      "ĠKo": 2126,
      "Ġpiep": 2127,
      "trze": 2128,
      "Ġjaz": 2129,
      "staÅĦ": 2130,
      "Ġdobra": 2131,
      "Ile": 2132,
      "ĠdaÅĤ": 2133,
      "Ġwoj": 2134,
      "Ġkrwi": 2135,
      "Li": 2136,
      "me": 2137,
      "tne": 2138,
      "Ġtemu": 2139,
      "Ġznaczy": 2140,
      "tyw": 2141,
      "Jeden": 2142,
      "ĠwyglÄħda": 2143,
      "Ġpodzie": 2144,
      "Ġdr": 2145,
      "Ġwidzisz": 2146,
      "ĠRy": 2147,
      "bel": 2148,
      "Ġbuj": 2149,
      "ciÅĤem": 2150,
      "resz": 2151,
      "Robi": 2152,
      "Ġbet": 2153,
      "Ġmil": 2154,
      "tyk": 2155,
      "oney": 2156,
      "Ġnieba": 2157,
      "Ġmiejsca": 2158,
      "Ġbaj": 2159,
      "czyÅĤem": 2160,
      "jÄħc": 2161,
      "daje": 2162,
      "ĠbÃ³l": 2163,
      "ill": 2164,
      "ĠprawdÄĻ": 2165,
      "Ġdrodze": 2166,
      "ĠkoleÅ¼": 2167,
      "Ġspad": 2168,
      "Ġode": 2169,
      "ĠpatrzÄħ": 2170,
      "ĠchciaÅĤbym": 2171,
      "ĠgÃ³ry": 2172,
      "emi": 2173,
      "leb": 2174,
      "Ġmniej": 2175,
      "Albo": 2176,
      "Ġan": 2177,
      "Ġper": 2178,
      "aÅĤem": 2179,
      "wem": 2180,
      "Ġmama": 2181,
      "ĠskÅĤad": 2182,
      "uf": 2183,
      "kol": 2184,
      "ĠÅĽpie": 2185,
      "Ġswoim": 2186,
      "ĠdÅº": 2187,
      "cale": 2188,
      "Qu": 2189,
      "SÄħ": 2190,
      "ĠmÃ³z": 2191,
      "Ġciem": 2192,
      "Ġpali": 2193,
      "ĠÅĽwiecie": 2194,
      "uÅĽ": 2195,
      "ĠÅģ": 2196,
      "ĠÅĽwiÄĻ": 2197,
      "dech": 2198,
      "ĠDo": 2199,
      "ĠwÅĤa": 2200,
      "ĠÅ¼yje": 2201,
      "ĠWarsza": 2202,
      "ĠpowiedzieÄĩ": 2203,
      "Ġkwit": 2204,
      "ÅĽrÃ³d": 2205,
      "Ġpracy": 2206,
      "ĠwziÄħ": 2207,
      "ĠdÅĤugo": 2208,
      "dom": 2209,
      "ĠwÃ³d": 2210,
      "Ġget": 2211,
      "nic": 2212,
      "Ġmilion": 2213,
      "lon": 2214,
      "lin": 2215,
      "Ġsami": 2216,
      "ĠNa": 2217,
      "Ã³ki": 2218,
      "Ġzara": 2219,
      "Ġtakich": 2220,
      "est": 2221,
      "Ġuwie": 2222,
      "Ġniby": 2223,
      "Ġrano": 2224,
      "Ġdup": 2225,
      "Ġswoich": 2226,
      "piero": 2227,
      "ByÅĤem": 2228,
      "Oni": 2229,
      "cj": 2230,
      "lnie": 2231,
      "ĠdÃ³ÅĤ": 2232,
      "Ġroku": 2233,
      "ef": 2234,
      "ĠNi": 2235,
      "lik": 2236,
      "ĠwidaÄĩ": 2237,
      "Ġeki": 2238,
      "ĠmelanÅ¼": 2239,
      "chajÄħ": 2240,
      "Ġnau": 2241,
      "Ġnadzie": 2242,
      "Ġuda": 2243,
      "Ġdzwoni": 2244,
      "Å»ad": 2245,
      "Ġbiz": 2246,
      "ew": 2247,
      "Ġgang": 2248,
      "Ġcztery": 2249,
      "Ġtypie": 2250,
      "ĠchÅĤop": 2251,
      "Ġoczach": 2252,
      "Ġmikro": 2253,
      "rem": 2254,
      "ĠwiedzÄħ": 2255,
      "va": 2256,
      "ĠTwo": 2257,
      "ĠTobÄħ": 2258,
      "Ġstrach": 2259,
      "dny": 2260,
      "tny": 2261,
      "kim": 2262,
      "dasz": 2263,
      "Ġdrogi": 2264,
      "ps": 2265,
      "Ġwygra": 2266,
      "Ġ3": 2267,
      "Ġnagry": 2268,
      "dzam": 2269,
      "bija": 2270,
      "Ġsama": 2271,
      "ĠpÅĤynie": 2272,
      "ĠsÅĤyszÄĻ": 2273,
      "tku": 2274,
      "Ġwyp": 2275,
      "und": 2276,
      "Ġzbyt": 2277,
      "lex": 2278,
      "ĠkrÄĻci": 2279,
      "ÅĤych": 2280,
      "ĠgÅĤupi": 2281,
      "Ġdia": 2282,
      "ĠjednÄħ": 2283,
      "Åļwiat": 2284,
      "SÅĤu": 2285,
      "Ġek": 2286,
      "leÄĩ": 2287,
      "ÅºÄĩ": 2288,
      "Ġpatrzy": 2289,
      "Ġcham": 2290,
      "bij": 2291,
      "ura": 2292,
      "Ġrobo": 2293,
      "Ġwin": 2294,
      "ĠSo": 2295,
      "Ġsercu": 2296,
      "Ġpytaj": 2297,
      "Ġbang": 2298,
      "dio": 2299,
      "Ġpoza": 2300,
      "ĠdupÄĻ": 2301,
      "Ġspokoj": 2302,
      "ĠmÃ³gÅĤ": 2303,
      "Ġbani": 2304,
      "Ġone": 2305,
      "wiek": 2306,
      "LubiÄĻ": 2307,
      "Tam": 2308,
      "ĠpiÄħ": 2309,
      "ok": 2310,
      "leko": 2311,
      "dne": 2312,
      "tni": 2313,
      "ĠjoÅĤ": 2314,
      "ĠPan": 2315,
      "braÄĩ": 2316,
      "KtoÅĽ": 2317,
      "Ġski": 2318,
      "Ġwyda": 2319,
      "Ġszcz": 2320,
      "ĠrÄĻkÄĻ": 2321,
      "ĠmiÄĻdzy": 2322,
      "tk": 2323,
      "zm": 2324,
      "Ġtowar": 2325,
      "licz": 2326,
      "rywa": 2327,
      "Ġwiecz": 2328,
      "szysz": 2329,
      "tuje": 2330,
      "ĠgÅĤoÅĽ": 2331,
      "ĠspokÃ³j": 2332,
      "ĠÅĤo": 2333,
      "Ġscho": 2334,
      "Ġmet": 2335,
      "laÅĤ": 2336,
      "sisz": 2337,
      "Ġfilm": 2338,
      "Å¼Äħ": 2339,
      "Ġponad": 2340,
      "ĠwaÅ¼ne": 2341,
      "kolwiek": 2342,
      "Ġnar": 2343,
      "taÅĤ": 2344,
      "tom": 2345,
      "Ġmusia": 2346,
      "Ġtrap": 2347,
      "ĠFi": 2348,
      "Ġgwiazd": 2349,
      "ĠpieniÄħdze": 2350,
      "lak": 2351,
      "Ġlam": 2352,
      "Ġstrze": 2353,
      "ĠGu": 2354,
      "ale": 2355,
      "owany": 2356,
      "Par": 2357,
      "Trze": 2358,
      "row": 2359,
      "pal": 2360,
      "Ġstres": 2361,
      "ĠCz": 2362,
      "ĠogieÅĦ": 2363,
      "Ġwchodzi": 2364,
      "Ġmen": 2365,
      "Ġprosto": 2366,
      "ĠsÅĤowo": 2367,
      "ĠkoÅĦca": 2368,
      "op": 2369,
      "gach": 2370,
      "Ġwyjebane": 2371,
      "Ġblu": 2372,
      "ĠPolska": 2373,
      "Ġwspom": 2374,
      "?\"": 2375,
      "uh": 2376,
      "rzaÅĤ": 2377,
      "pierdalaj": 2378,
      "Ġzwie": 2379,
      "Ġzaba": 2380,
      "ers": 2381,
      "Ġrobisz": 2382,
      "owych": 2383,
      "aha": 2384,
      "Ġpozd": 2385,
      "tce": 2386,
      "ĠchÄĻ": 2387,
      "kaÄĩ": 2388,
      "Ġcodzien": 2389,
      "Raz": 2390,
      "Sta": 2391,
      "liÅĤ": 2392,
      "ujemy": 2393,
      "Ġstanie": 2394,
      "Znam": 2395,
      "ĠsiÅĤÄĻ": 2396,
      "ĠjakoÅĽ": 2397,
      "Ġwrzu": 2398,
      "Ġwcale": 2399,
      "szczy": 2400,
      "ĠSt": 2401,
      "Ġziomal": 2402,
      "Ġinter": 2403,
      "ĠjÄĻ": 2404,
      "log": 2405,
      "tym": 2406,
      "Ġcash": 2407,
      "ĠgraÄĩ": 2408,
      "nki": 2409,
      "rzÄħd": 2410,
      "Ġpij": 2411,
      "Kolej": 2412,
      "ÅĤÃ³": 2413,
      "Ġksy": 2414,
      "Ġzero": 2415,
      "Ġsny": 2416,
      "Ġpop": 2417,
      "Ġzaro": 2418,
      "Ġmoment": 2419,
      "Ġprzer": 2420,
      "MÃ³wiÄĻ": 2421,
      "ble": 2422,
      "gen": 2423,
      "Ġpoczu": 2424,
      "ĠgrÄĻ": 2425,
      "Ġkomu": 2426,
      "Ġpierwsze": 2427,
      "ĠmÃ³wisz": 2428,
      "ĠLo": 2429,
      "Ġnormal": 2430,
      "szej": 2431,
      "Ġbas": 2432,
      "Ġtrafi": 2433,
      "ĠpÅĤyty": 2434,
      "puszcz": 2435,
      "Ġ'": 2436,
      "rzej": 2437,
      "rzyd": 2438,
      "ĠMC": 2439,
      "ĠpiÄĩ": 2440,
      "waÅ¼ne": 2441,
      "ĠdziaÅĤa": 2442,
      "ĠÅĤatwo": 2443,
      "dej": 2444,
      "ĠÅ¼ar": 2445,
      "ĠÅĤzy": 2446,
      "lemy": 2447,
      "Ġter": 2448,
      "laz": 2449,
      "Ġalko": 2450,
      "ĠskÄħd": 2451,
      "Tyle": 2452,
      "Ġhajsu": 2453,
      "Sko": 2454,
      "Ġcen": 2455,
      "Ġmieli": 2456,
      "ĠimiÄĻ": 2457,
      "Ġklasy": 2458,
      "Ġcier": 2459,
      "Ġchcemy": 2460,
      "Ġrapie": 2461,
      "ĠDe": 2462,
      "CoÅĽ": 2463,
      "Ġmocno": 2464,
      "Ġlepsze": 2465,
      "Oh": 2466,
      "naczej": 2467,
      "Ġfree": 2468,
      "Ġsukces": 2469,
      "Wtedy": 2470,
      "era": 2471,
      "Ġpia": 2472,
      "sti": 2473,
      "chi": 2474,
      "Ġobie": 2475,
      "ĠÅ¼ebym": 2476,
      "Ġstre": 2477,
      "ĠpÅĤyta": 2478,
      "gubi": 2479,
      "ChciaÅĤbym": 2480,
      "szo": 2481,
      "ĠspeÅĤ": 2482,
      "ĠwolÄĻ": 2483,
      "Pie": 2484,
      "Tro": 2485,
      "kra": 2486,
      "sen": 2487,
      "ĠwyszÅĤo": 2488,
      "Ġbeton": 2489,
      "Ku": 2490,
      "TwÃ³j": 2491,
      "Zna": 2492,
      "Ġkry": 2493,
      "Ġinnych": 2494,
      "sÅĤa": 2495,
      "ĠwchodzÄĻ": 2496,
      "Ġrana": 2497,
      "Ġjednym": 2498,
      "Ġjednak": 2499,
      "Ġserio": 2500,
      "ĠmogÄħ": 2501,
      "ght": 2502,
      "SÅĤy": 2503,
      "Ġen": 2504,
      "ĠprÃ³b": 2505,
      "Ġniepo": 2506,
      "chodzÄħ": 2507,
      "Ġjedna": 2508,
      "Dobrze": 2509,
      "owa": 2510,
      "Ġpog": 2511,
      "ĠktÃ³ra": 2512,
      "zaÄĩ": 2513,
      "Ġsyn": 2514,
      "pow": 2515,
      "ciÄħga": 2516,
      "ĠmyÅĽlÄħ": 2517,
      "De": 2518,
      "wach": 2519,
      "czenie": 2520,
      "chaÅĤem": 2521,
      "Ġrobimy": 2522,
      "uro": 2523,
      "ĠciÄĻÅ¼ko": 2524,
      "Ġwkurwia": 2525,
      "Zanim": 2526,
      "rum": 2527,
      "Ġjara": 2528,
      "Ġdziwko": 2529,
      "Ġumiem": 2530,
      "ĠstÃ³w": 2531,
      "Ġluz": 2532,
      "BÄĻdÄĻ": 2533,
      "Pra": 2534,
      "ĠgadaÄĩ": 2535,
      "chnie": 2536,
      "ĠgÄĻ": 2537,
      "Ġprawie": 2538,
      "bar": 2539,
      "dziÅĤem": 2540,
      "ĠcaÅĤa": 2541,
      "ĠmordÄĻ": 2542,
      "Spo": 2543,
      "Ġset": 2544,
      "Ġwczoraj": 2545,
      "Å¼eli": 2546,
      "ĠpÅĤytÄĻ": 2547,
      "Ġwers": 2548,
      "Pu": 2549,
      "Ġszk": 2550,
      "ĠnocÄħ": 2551,
      "Ġmuzyka": 2552,
      "Ã©": 2553,
      "lec": 2554,
      "praszam": 2555,
      "Ġtelefon": 2556,
      "BiorÄĻ": 2557,
      "Ġodpowie": 2558,
      "Ġjaka": 2559,
      "ĠBe": 2560,
      "Ġulicy": 2561,
      "ĠJe": 2562,
      "Ġnagle": 2563,
      "bijam": 2564,
      "Ġwielki": 2565,
      "ĠwidzÄħ": 2566,
      "JadÄĻ": 2567,
      "Ġlove": 2568,
      "Ġdziecko": 2569,
      "WÅĤaÅĽnie": 2570,
      "Ġpoma": 2571,
      "Ci": 2572,
      "mm": 2573,
      "Ġdre": 2574,
      "Ġist": 2575,
      "del": 2576,
      "Ġpapier": 2577,
      "ÅĤÄħcz": 2578,
      "Ġzy": 2579,
      "Ġjas": 2580,
      "Ġchwile": 2581,
      "Ġmarzenia": 2582,
      "dow": 2583,
      "Ġniebie": 2584,
      "Ġszan": 2585,
      "Ġhy": 2586,
      "ĠwidzieÄĩ": 2587,
      "Ġczasy": 2588,
      "Ġsens": 2589,
      "czymy": 2590,
      "Ġdar": 2591,
      "cenie": 2592,
      "czeÅĽniej": 2593,
      "ĠBÃ³g": 2594,
      "imo": 2595,
      "ĠÅĤez": 2596,
      "IE": 2597,
      "fiÄĻ": 2598,
      "min": 2599,
      "anym": 2600,
      "ĠchodÅº": 2601,
      "Ġkoncert": 2602,
      "racam": 2603,
      "ĠmaÅĤy": 2604,
      "Ġnogi": 2605,
      "tura": 2606,
      "ujÄħc": 2607,
      "wka": 2608,
      "wego": 2609,
      "Ġupad": 2610,
      "siÄĩ": 2611,
      "iÄĩ": 2612,
      "ĠpoczÄħ": 2613,
      "wal": 2614,
      "SÅĤo": 2615,
      "Ġnu": 2616,
      "leÅ¼": 2617,
      "Ġlicz": 2618,
      "ĠTobie": 2619,
      "Mordo": 2620,
      "stat": 2621,
      "dziÅĤ": 2622,
      "ame": 2623,
      "Ġinny": 2624,
      "ĠHa": 2625,
      "hi": 2626,
      "kom": 2627,
      "ĠmaÅĤola": 2628,
      "ĠktÃ³rej": 2629,
      "ĠmiÅĤoÅĽci": 2630,
      "Ġszukam": 2631,
      "czka": 2632,
      "Ġnapis": 2633,
      "cci": 2634,
      "Ġgramy": 2635,
      "naÄĩ": 2636,
      "gad": 2637,
      "pierw": 2638,
      "ĠrÃ³w": 2639,
      "Ġwracam": 2640,
      "IdÄĻ": 2641,
      "ChciaÅĤem": 2642,
      "ĠuÅĽmiech": 2643,
      "fer": 2644,
      "Ġgard": 2645,
      "Ġchcieli": 2646,
      "Ġwychodzi": 2647,
      "ĠÅ¼adnych": 2648,
      "Ġbiznes": 2649,
      "Ġwan": 2650,
      "rzem": 2651,
      "Ġpogo": 2652,
      "Ġfla": 2653,
      "âĢ¦": 2654,
      "Ġciu": 2655,
      "style": 2656,
      "Ġbuty": 2657,
      "Ġall": 2658,
      "CaÅĤ": 2659,
      "Ġwiad": 2660,
      "onÄħ": 2661,
      "Ġbywa": 2662,
      "Ġpisze": 2663,
      "Ġliczy": 2664,
      "ĠsÅĤod": 2665,
      "Ġbeef": 2666,
      "win": 2667,
      "omy": 2668,
      "Ġdroga": 2669,
      "Kocham": 2670,
      "Ġthat": 2671,
      "ĠczuÄĩ": 2672,
      "Su": 2673,
      "Ã³c": 2674,
      "Ġmin": 2675,
      "cka": 2676,
      "ĠwjeÅ¼dÅ¼": 2677,
      "Ġdnie": 2678,
      "aku": 2679,
      "ÅĤach": 2680,
      "Ġsuko": 2681,
      "Ġprawdy": 2682,
      "Ġparu": 2683,
      "tej": 2684,
      "Ġzab": 2685,
      "Ġwyt": 2686,
      "Ġprzesz": 2687,
      "ĠkaÅ¼da": 2688,
      "ct": 2689,
      "dzieÅĦ": 2690,
      "Ġgaz": 2691,
      "ĠkawaÅĤek": 2692,
      "czna": 2693,
      "Ġczujesz": 2694,
      "ĠlecÄħ": 2695,
      "Ġplany": 2696,
      "aram": 2697,
      "ĠwidziaÅĤem": 2698,
      "Ġchuju": 2699,
      "ĠkÅĤa": 2700,
      "ĠdziÄĻki": 2701,
      "Ġmieszka": 2702,
      "Ġtrack": 2703,
      "ĠÅĽrodku": 2704,
      "TrochÄĻ": 2705,
      "Ka": 2706,
      "ky": 2707,
      "ld": 2708,
      "son": 2709,
      "czenia": 2710,
      "ĠtwojÄħ": 2711,
      "Ġtrzymam": 2712,
      "Ġzwyk": 2713,
      "Ġport": 2714,
      "leÅºÄĩ": 2715,
      "Ġinaczej": 2716,
      "tarz": 2717,
      "Ġmija": 2718,
      "wiÅĤ": 2719,
      "Ġdawaj": 2720,
      "Czemu": 2721,
      "ĠjakieÅĽ": 2722,
      "Ha": 2723,
      "wan": 2724,
      "ĠidÅº": 2725,
      "Ġzaja": 2726,
      "Ġwierzy": 2727,
      "Ġpanie": 2728,
      "Taki": 2729,
      "ĠkrÃ³l": 2730,
      "MuszÄĻ": 2731,
      "Que": 2732,
      "nio": 2733,
      "ĠktÃ³rÄħ": 2734,
      "Ġlike": 2735,
      "Ġpuszcz": 2736,
      "ĠPolsce": 2737,
      "Ġziemi": 2738,
      "PamiÄĻtam": 2739,
      "ĠzaczÄħ": 2740,
      "czeÅĦ": 2741,
      "siÄħc": 2742,
      "ĠzÄĻ": 2743,
      "Ġcu": 2744,
      "iaÅĤas": 2745,
      "laj": 2746,
      "Ġuro": 2747,
      "lona": 2748,
      "Ġtacy": 2749,
      "ĠliczÄĻ": 2750,
      "Ġdupa": 2751,
      "Ġruch": 2752,
      "Ġbur": 2753,
      "iar": 2754,
      "tyka": 2755,
      "wiz": 2756,
      "Ġboga": 2757,
      "dia": 2758,
      "Ġnon": 2759,
      "ĠÅ¼a": 2760,
      "Ġczuje": 2761,
      "szyÄĩ": 2762,
      "atu": 2763,
      "ĠszczÄĻÅĽcia": 2764,
      "ĠÅĽmierÄĩ": 2765,
      "ĠsÅĤoÅĦce": 2766,
      "ĠY": 2767,
      "ÅĤego": 2768,
      "Ġgdyby": 2769,
      "ĠdrogÄĻ": 2770,
      "Ġwaria": 2771,
      "Ġbru": 2772,
      "erce": 2773,
      "anach": 2774,
      "ĠpalÄĻ": 2775,
      "Ġpierdolony": 2776,
      "ig": 2777,
      "Ġwystarczy": 2778,
      "Ġkor": 2779,
      "ĠKu": 2780,
      "Ġspoko": 2781,
      "Ġobchodzi": 2782,
      "Dobra": 2783,
      "Ġklub": 2784,
      "ProszÄĻ": 2785,
      "Dwa": 2786,
      "bon": 2787,
      "raca": 2788,
      "ĠzabiÄĩ": 2789,
      "Ġwido": 2790,
      "You": 2791,
      "Zamiast": 2792,
      "ĠprÄħd": 2793,
      "ktÃ³": 2794,
      "ner": 2795,
      "yy": 2796,
      "ĠbÅĤy": 2797,
      "Ġbal": 2798,
      "ret": 2799,
      "tury": 2800,
      "Ġwiatr": 2801,
      "Twoja": 2802,
      "Ġmikrofon": 2803,
      "So": 2804,
      "ĠkoÅĤa": 2805,
      "ĠBoga": 2806,
      "ĠscenÄĻ": 2807,
      "Ġbrz": 2808,
      "ĠoÅĽ": 2809,
      "ĠJak": 2810,
      "ĠwÄĻ": 2811,
      "lenie": 2812,
      "lepiej": 2813,
      "Ġoso": 2814,
      "Ġcoraz": 2815,
      "Ġpozo": 2816,
      "Ġmiejscu": 2817,
      "kÅĤadam": 2818,
      "Ġproblemy": 2819,
      "Ġtrwa": 2820,
      "ĠmyÅĽlisz": 2821,
      "Ġzach": 2822,
      "Ġmimo": 2823,
      "Ġdzieje": 2824,
      "aniu": 2825,
      "Ġpysk": 2826,
      "Szy": 2827,
      "kami": 2828,
      "pan": 2829,
      "onym": 2830,
      "Ġbyle": 2831,
      "bach": 2832,
      "wiaÄĩ": 2833,
      "Ġzdra": 2834,
      "Wszystkie": 2835,
      "Ġtwarzy": 2836,
      "Ġumy": 2837,
      "Ġlas": 2838,
      "MogÄĻ": 2839,
      "ĠÅ¼ebyÅĽ": 2840,
      "tle": 2841,
      "stw": 2842,
      "kow": 2843,
      "ĠstojÄĻ": 2844,
      "Ġbloku": 2845,
      "id": 2846,
      "ĠmÄħd": 2847,
      "dzimy": 2848,
      "ĠleÅ¼y": 2849,
      "Ġproste": 2850,
      "Ġkul": 2851,
      "Ġwaka": 2852,
      "Ġkwa": 2853,
      "Ġzale": 2854,
      "skÄħ": 2855,
      "Pow": 2856,
      "Ġdopiero": 2857,
      "ĠmiaÅĤo": 2858,
      "kÅĤadnie": 2859,
      "Ġmoney": 2860,
      "Ġwyko": 2861,
      "Ġhard": 2862,
      "Ġskar": 2863,
      "ĠzmieniÄĩ": 2864,
      "cenia": 2865,
      "Ġczekam": 2866,
      "fie": 2867,
      "ĠzÅĤy": 2868,
      "Ġbram": 2869,
      "ciw": 2870,
      "ĠskÃ³": 2871,
      "ĠkaÅ¼dÄħ": 2872,
      "ĠpiÄĻkne": 2873,
      "ĠÅĽle": 2874,
      "Ġstoi": 2875,
      "Ġchwil": 2876,
      "Lepiej": 2877,
      "Ġszczyt": 2878,
      "Ġwielkie": 2879,
      "zn": 2880,
      "nii": 2881,
      "ĠTwoje": 2882,
      "utaj": 2883,
      "Ġweek": 2884,
      "PrzecieÅ¼": 2885,
      "ĠsprawdÅº": 2886,
      "Ġnarko": 2887,
      "ĠTa": 2888,
      "Ġdaleko": 2889,
      "Ġtwar": 2890,
      "ÅĤek": 2891,
      "daÅĤem": 2892,
      "ome": 2893,
      "ChcÄħ": 2894,
      "ĠTwÃ³j": 2895,
      "ÅĤÃ³d": 2896,
      "ĠÅĽnie": 2897,
      "gaÄĩ": 2898,
      "ÅĽciej": 2899,
      "ĠpÃ³ki": 2900,
      "czkÄĻ": 2901,
      "Ġis": 2902,
      "wier": 2903,
      "Ġrozk": 2904,
      "ĠRa": 2905,
      "MÅĤody": 2906,
      "Ġzatrzym": 2907,
      "ĠrÄĻkach": 2908,
      "Ġpokaz": 2909,
      "Ġzaczyna": 2910,
      "ĠkaÅ¼dego": 2911,
      "fia": 2912,
      "ĠzÅĤe": 2913,
      "Ġnaszych": 2914,
      "ĠgÅĤÃ³w": 2915,
      "ĠzrobiÅĤ": 2916,
      "ĠjÄĻzy": 2917,
      "jak": 2918,
      "rym": 2919,
      "Ġzje": 2920,
      "lek": 2921,
      "oniÄĻ": 2922,
      "Ġmoi": 2923,
      "patrz": 2924,
      "ate": 2925,
      "orry": 2926,
      "Ġdwu": 2927,
      "kar": 2928,
      "woÅĦ": 2929,
      "Ġinne": 2930,
      "wiÄħz": 2931,
      "Zosta": 2932,
      "sÅĤo": 2933,
      "Ġscenie": 2934,
      "ĠnastÄĻp": 2935,
      "cisk": 2936,
      "ChÅĤo": 2937,
      "Ġfajnie": 2938,
      "Ġjedynie": 2939,
      "Ġshow": 2940,
      "reszcie": 2941,
      "gga": 2942,
      "Ġspotka": 2943,
      "Ġzrozumie": 2944,
      "ĠÅĤapie": 2945,
      "Ġwbijam": 2946,
      "DF": 2947,
      "Sy": 2948,
      "czas": 2949,
      "cieÄĩ": 2950,
      "Ġrady": 2951,
      "Ġspier": 2952,
      "Ġbity": 2953,
      "Ġtwoim": 2954,
      "Ġzako": 2955,
      "Ġide": 2956,
      "Ġodw": 2957,
      "ung": 2958,
      "ĠLe": 2959,
      "ĠpÅĤyt": 2960,
      "Ġchwila": 2961,
      "Ġnikogo": 2962,
      "Nowy": 2963,
      "Ġblan": 2964,
      "nieÄĩ": 2965,
      "Ġout": 2966,
      "nios": 2967,
      "Ġuczu": 2968,
      "ÅĦcu": 2969,
      "Ġrapy": 2970,
      "Czek": 2971,
      "Ġspoj": 2972,
      "Ġsiedem": 2973,
      "ĠdÅĤoni": 2974,
      "Bu": 2975,
      "tajÄħ": 2976,
      "ciem": 2977,
      "rip": 2978,
      "Ġtwoich": 2979,
      "Ġseks": 2980,
      "PatrzÄĻ": 2981,
      "yeah": 2982,
      "ĠwczeÅĽniej": 2983,
      "ĠbÃ³": 2984,
      "ÅĽl": 2985,
      "kaÅ¼": 2986,
      "nicy": 2987,
      "Ġnajlepszy": 2988,
      "Tutaj": 2989,
      "Zmie": 2990,
      "Ġzer": 2991,
      "nieÅĽÄĩ": 2992,
      "Ġposz": 2993,
      "biam": 2994,
      "wisto": 2995,
      "palam": 2996,
      "ĠbojÄĻ": 2997,
      "ĠkoÅĦczy": 2998,
      "Ġplus": 2999,
      "czaj": 3000,
      "ĠchÅĤopaki": 3001,
      "prowa": 3002,
      "ĠkogoÅĽ": 3003,
      "Go": 3004,
      "Ġtakim": 3005,
      "Ġwstyd": 3006,
      "ament": 3007,
      "lad": 3008,
      "Ġuf": 3009,
      "ĠrÄħ": 3010,
      "Ġface": 3011,
      "Bie": 3012,
      "wajÄħ": 3013,
      "orem": 3014,
      "ĠpijÄĻ": 3015,
      "ĠpiekÅĤo": 3016,
      "Ġpraca": 3017,
      "Ġstrasz": 3018,
      "Ġfuck": 3019,
      "Be": 3020,
      "sek": 3021,
      "ton": 3022,
      "wasz": 3023,
      "are": 3024,
      "Ġflo": 3025,
      "skim": 3026,
      "Ġmordy": 3027,
      "dli": 3028,
      "gÅĤo": 3029,
      "tna": 3030,
      "Ġdem": 3031,
      "Ġdrze": 3032,
      "Ġchmu": 3033,
      "Ġwyso": 3034,
      "Dzi": 3035,
      "ĠAl": 3036,
      "Ġyour": 3037,
      "ĠwyjÅĽÄĩ": 3038,
      "Ġpotrafi": 3039,
      "cent": 3040,
      "dajÄĻ": 3041,
      "ÅĽwia": 3042,
      "niÅĤ": 3043,
      "gor": 3044,
      "Ġkrok": 3045,
      "Ġsprawy": 3046,
      "Zrobi": 3047,
      "daj": 3048,
      "ÅĤoÅ¼y": 3049,
      "Ġwith": 3050,
      "ĠÅ¼yciem": 3051,
      "ĠLa": 3052,
      "Ġbran": 3053,
      "ĠmyÅĽl": 3054,
      "ĠlubiÄħ": 3055,
      "Ġzamknij": 3056,
      "ĠprÃ³": 3057,
      "ĠdÅ¼": 3058,
      "Ġkru": 3059,
      "cyj": 3060,
      "niach": 3061,
      "Ġlife": 3062,
      "ĠÅĤÃ³Å¼": 3063,
      "ĠciÄħg": 3064,
      "ĠZa": 3065,
      "ien": 3066,
      "Ġben": 3067,
      "Ġczerw": 3068,
      "asa": 3069,
      "ekt": 3070,
      "Ġsuper": 3071,
      "Ġreal": 3072,
      "Ġbraci": 3073,
      "Ġzdoby": 3074,
      "ĠGucci": 3075,
      "akÃ³w": 3076,
      "Ġnazy": 3077,
      "alÄĻ": 3078,
      "cych": 3079,
      "Ġpodej": 3080,
      "Ġinni": 3081,
      "Ġsuki": 3082,
      "ĠJoÅĤ": 3083,
      "lÄħdam": 3084,
      "Ġat": 3085,
      "ĠchodzÄĻ": 3086,
      "ĠpieniÄĻ": 3087,
      "ĠkimÅĽ": 3088,
      "Ġlepszy": 3089,
      "Hej": 3090,
      "ju": 3091,
      "pla": 3092,
      "Ġ,": 3093,
      "ĠdajÄĻ": 3094,
      "Ġzobacz": 3095,
      "Ġcelu": 3096,
      "Ġambi": 3097,
      "ĠÅĽmierci": 3098,
      "rac": 3099,
      "ĠjakÄħ": 3100,
      "pali": 3101,
      "Ġdlaczego": 3102,
      "ĠmÃ³wiÅĤ": 3103,
      "ĠsÅĤuchaÄĩ": 3104,
      "ĠstronÄĻ": 3105,
      "Ġtekst": 3106,
      "ĠprzyszÅĤoÅĽÄĩ": 3107,
      "gres": 3108,
      "ksy": 3109,
      "pem": 3110,
      "rt": 3111,
      "Ġbyli": 3112,
      "net": 3113,
      "osen": 3114,
      "ĠzostaÄĩ": 3115,
      "ĠsÅĤychaÄĩ": 3116,
      "Twoje": 3117,
      "Âł": 3118,
      "Ġbej": 3119,
      "Ġszep": 3120,
      "ĠpieniÄħdz": 3121,
      "Ġzdrowie": 3122,
      "Ġdoj": 3123,
      "Ġszmat": 3124,
      "Jeb": 3125,
      "ĠziomuÅĽ": 3126,
      "Ġblokach": 3127,
      "?!": 3128,
      "Ob": 3129,
      "ĠÅļ": 3130,
      "ĠpoÅĽ": 3131,
      "Ġwybra": 3132,
      "Jedy": 3133,
      "ÅĽciÄħ": 3134,
      "ĠbraÄĩ": 3135,
      "ĠjakbyÅĽ": 3136,
      "Ġotwie": 3137,
      "Ġsiano": 3138,
      "Ġnak": 3139,
      "ĠksiÄĻ": 3140,
      "Ġido": 3141,
      "Ġmix": 3142,
      "tos": 3143,
      "bierz": 3144,
      "Ġprzegra": 3145,
      "ys": 3146,
      "Ġswe": 3147,
      "Ġocho": 3148,
      "Ġnowa": 3149,
      "ĠAm": 3150,
      "Ġbieg": 3151,
      "Ġswojej": 3152,
      "Ġteksty": 3153,
      "ep": 3154,
      "Ġkle": 3155,
      "Ġzasa": 3156,
      "naÅĤ": 3157,
      "cep": 3158,
      "Ġczasie": 3159,
      "waÅ¼nie": 3160,
      "Ġblisko": 3161,
      "ĠusÅĤy": 3162,
      "ĠrÃ³b": 3163,
      "ĠgÅĤÄĻ": 3164,
      "kon": 3165,
      "ciej": 3166,
      "Moi": 3167,
      "gno": 3168,
      "trzeb": 3169,
      "Ġniebo": 3170,
      "Ġtop": 3171,
      "Ġdrin": 3172,
      "tan": 3173,
      "dzenia": 3174,
      "Ġoko": 3175,
      "Ġposta": 3176,
      "jeden": 3177,
      "Ġust": 3178,
      "Ġinnym": 3179,
      "ĠchciaÅĤa": 3180,
      "Ġchwili": 3181,
      "Patrz": 3182,
      "wer": 3183,
      "Ġpani": 3184,
      "Ġcud": 3185,
      "Ġback": 3186,
      "Ġgada": 3187,
      "ĠsÅĤucham": 3188,
      "Ġklubie": 3189,
      "Ġszczerze": 3190,
      "Ġdrugiej": 3191,
      "Ġwiadomo": 3192,
      "ÅĤÄħd": 3193,
      "ĠidÄħ": 3194,
      "waÅĤa": 3195,
      "Ġstu": 3196,
      "rÃ³t": 3197,
      "syÄĩ": 3198,
      "ĠDa": 3199,
      "zaleÅ¼": 3200,
      "SiedzÄĻ": 3201,
      "Ġminut": 3202,
      "Bar": 3203,
      "nÃ³w": 3204,
      "owaÄĩ": 3205,
      "ven": 3206,
      "Ġ5": 3207,
      "Ġzmy": 3208,
      "Ġdna": 3209,
      "Ġgor": 3210,
      "Ġkara": 3211,
      "iema": 3212,
      "ĠgÅĤowa": 3213,
      "Ġobu": 3214,
      "Ġjebane": 3215,
      "PierdolÄĻ": 3216,
      "ParÄĻ": 3217,
      "Praw": 3218,
      "PÃ³ki": 3219,
      "wej": 3220,
      "stry": 3221,
      "rawiam": 3222,
      "Ġmat": 3223,
      "Ġpusty": 3224,
      "Ġnawija": 3225,
      "lala": 3226,
      "Ġzaj": 3227,
      "niaÄĩ": 3228,
      "Ġimp": 3229,
      "dwo": 3230,
      "gal": 3231,
      "pel": 3232,
      "ĠpÅĤ": 3233,
      "ĠprÄĻ": 3234,
      "szki": 3235,
      "Ġzaje": 3236,
      "Ġsamym": 3237,
      "Ġzga": 3238,
      "lew": 3239,
      "ÅĤat": 3240,
      "Ġszlu": 3241,
      "Ġwil": 3242,
      "ĠsiedzÄĻ": 3243,
      "BÄĻdzie": 3244,
      "szoÅĽÄĩ": 3245,
      "scho": 3246,
      "leÅĦ": 3247,
      "Ġczter": 3248,
      "nÄħÅĤem": 3249,
      "Ġgoni": 3250,
      "Ġnajlepiej": 3251,
      "fini": 3252,
      "Ġsiedzi": 3253,
      "ĠpeÅĤen": 3254,
      "for": 3255,
      "gim": 3256,
      "wen": 3257,
      "Ġtry": 3258,
      "stki": 3259,
      "ĠpierdoliÄĩ": 3260,
      "ÅĤadam": 3261,
      "Ġprzem": 3262,
      "Ġstrony": 3263,
      "Ġczarne": 3264,
      "Ġbankno": 3265,
      "wce": 3266,
      "Ġdno": 3267,
      "Ġble": 3268,
      "ĠjeÅº": 3269,
      "Ġskoro": 3270,
      "Ġdziewczyny": 3271,
      "Ġprzyjacie": 3272,
      "onÄĻ": 3273,
      "staÅĤ": 3274,
      "all": 3275,
      "Ġprowa": 3276,
      "ĠmiaÅĤa": 3277,
      "Leci": 3278,
      "use": 3279,
      "Pierw": 3280,
      "mar": 3281,
      "Ġzamy": 3282,
      "Ġzaw": 3283,
      "Ġrazie": 3284,
      "ĠÅĤÄħ": 3285,
      "Trzy": 3286,
      "knie": 3287,
      "wÃ³": 3288,
      "Ġtrak": 3289,
      "ama": 3290,
      "czony": 3291,
      "Ġgnie": 3292,
      "ĠgoÅĽci": 3293,
      "Ġkupi": 3294,
      "Ġklimat": 3295,
      "gami": 3296,
      "Ġ4": 3297,
      "Ġzazdro": 3298,
      "luch": 3299,
      "Ġlato": 3300,
      "jÄħÄĩ": 3301,
      "ĠczÅĤowieku": 3302,
      "Ġtwojej": 3303,
      "Pew": 3304,
      "ser": 3305,
      "zum": 3306,
      "rasz": 3307,
      "anÄħ": 3308,
      "Ġpiosen": 3309,
      "Ġdep": 3310,
      "ĠmyÅĽleÄĩ": 3311,
      "ĠmogÅĤem": 3312,
      "JesteÅĽmy": 3313,
      "Ġgadam": 3314,
      "Rzu": 3315,
      "mÃ³w": 3316,
      "pÄħ": 3317,
      "spo": 3318,
      "ĠkoÅĤo": 3319,
      "Ġprop": 3320,
      "west": 3321,
      "Ġrzeczywisto": 3322,
      "Ġotwar": 3323,
      "Dzieci": 3324,
      "ffi": 3325,
      "szczÄħ": 3326,
      "ĠbÅĤÄħd": 3327,
      "lewam": 3328,
      "Ġpocz": 3329,
      "ord": 3330,
      "ĠHo": 3331,
      "Ġpies": 3332,
      "Ġfun": 3333,
      "omi": 3334,
      "ĠÅĽmia": 3335,
      "Ġprzypad": 3336,
      "niÄĻty": 3337,
      "Ġstare": 3338,
      "stanÄĻ": 3339,
      "Ġtrudno": 3340,
      "CaÅĤe": 3341,
      "Skur": 3342,
      "cjÄħ": 3343,
      "gro": 3344,
      "Ġkan": 3345,
      "owym": 3346,
      "ĠwyciÄħg": 3347,
      "Ġukry": 3348,
      "ime": 3349,
      "prezent": 3350,
      "ĠpieniÄĻdzy": 3351,
      "OR": 3352,
      "sÄħ": 3353,
      "tko": 3354,
      "tru": 3355,
      "Ġziel": 3356,
      "Ġoka": 3357,
      "kich": 3358,
      "rych": 3359,
      "Ġludz": 3360,
      "inÄĻ": 3361,
      "jebaÅĤ": 3362,
      "Trzeba": 3363,
      "Ġfreestyle": 3364,
      "Zak": 3365,
      "fel": 3366,
      "obra": 3367,
      "Ġtalen": 3368,
      "ĠkaÅ¼dej": 3369,
      "Ġimprez": 3370,
      "Kolejny": 3371,
      "ĠrÄħk": 3372,
      "zer": 3373,
      "Ġcza": 3374,
      "Ġmomen": 3375,
      "Pol": 3376,
      "Ġziomy": 3377,
      "Ġdeka": 3378,
      "ĠhaÅĤas": 3379,
      "ĠpokaÅ¼": 3380,
      "Ostat": 3381,
      "hen": 3382,
      "stajÄĻ": 3383,
      "Ġchleb": 3384,
      "ajs": 3385,
      "ĠtakÄħ": 3386,
      "ciach": 3387,
      "ĠBu": 3388,
      "ĠgÅĤowÄħ": 3389,
      "Dzwoni": 3390,
      "Ġbest": 3391,
      "ĠskoÅĦczy": 3392,
      "kre": 3393,
      "Ġcan": 3394,
      "ĠpoÅĤo": 3395,
      "ĠÅĽli": 3396,
      "ĠskrÄĻ": 3397,
      "Gdybym": 3398,
      "Ġhop": 3399,
      "Ġskurwie": 3400,
      "Dawaj": 3401,
      "Å»aden": 3402,
      "gg": 3403,
      "Ġqu": 3404,
      "ĠkÃ³ÅĤ": 3405,
      "rzam": 3406,
      "Ġzabra": 3407,
      "Ġdow": 3408,
      "ĠwychodzÄĻ": 3409,
      "ĠprzestaÄĩ": 3410,
      "staÅĤem": 3411,
      "Ġrapem": 3412,
      "jebaÅĤem": 3413,
      "Trzym": 3414,
      "dna": 3415,
      "Ġzb": 3416,
      "Ġmas": 3417,
      "ĠprzeÅ¼yÄĩ": 3418,
      "atÄĻ": 3419,
      "ĠMe": 3420,
      "Ġrape": 3421,
      "ĠbÄĻdziemy": 3422,
      "Ġprzyjdzie": 3423,
      "ĠmÃ³zg": 3424,
      "ĠrzÄħ": 3425,
      "ÅĽni": 3426,
      "Ġniewie": 3427,
      "ciec": 3428,
      "owane": 3429,
      "Ġfraj": 3430,
      "ĠgotÃ³w": 3431,
      "Ġtrzyma": 3432,
      "ĠczegoÅĽ": 3433,
      "Ġrymy": 3434,
      "ĠĠĠĠĠĠĠĠ": 3435,
      "aty": 3436,
      "bas": 3437,
      "cami": 3438,
      "Ġjebie": 3439,
      "Ġwypi": 3440,
      "ĠfaÅĤ": 3441,
      "Ġodbi": 3442,
      "Ġprodu": 3443,
      "ĠDJ": 3444,
      "Ġspod": 3445,
      "cunek": 3446,
      "ĠznaÄĩ": 3447,
      "ĠzrobiÅĤem": 3448,
      "ĠJan": 3449,
      "ĠwÅĤasny": 3450,
      "DuÅ¼": 3451,
      "Ġref": 3452,
      "Gdyby": 3453,
      "ĠduÅ¼y": 3454,
      "Ġprzo": 3455,
      "Ġstarych": 3456,
      "Szyb": 3457,
      "zja": 3458,
      "ĠgorÄħ": 3459,
      "Ġwidzi": 3460,
      "poty": 3461,
      "ChodÅº": 3462,
      "Ġzobaczysz": 3463,
      "ĠmarzeÅĦ": 3464,
      "Ġfejm": 3465,
      "ĠÎ": 3466,
      "Ġsho": 3467,
      "Ġwpada": 3468,
      "ĠkÄħ": 3469,
      "ong": 3470,
      "Ġmis": 3471,
      "Ġtera": 3472,
      "Mama": 3473,
      "Ġmojego": 3474,
      "ĠLi": 3475,
      "MyÅĽlÄĻ": 3476,
      "Du": 3477,
      "ST": 3478,
      "knij": 3479,
      "wko": 3480,
      "Ġpak": 3481,
      "ena": 3482,
      "Ġkap": 3483,
      "ĠWo": 3484,
      "Ġbawi": 3485,
      "ĠHar": 3486,
      "Ġstylu": 3487,
      "Ġwasze": 3488,
      "Ġtren": 3489,
      "Brak": 3490,
      "Mimo": 3491,
      "Tra": 3492,
      "Ġner": 3493,
      "kasz": 3494,
      "Ġad": 3495,
      "Ġwierz": 3496,
      "noszÄĻ": 3497,
      "ĠziomÃ³w": 3498,
      "core": 3499,
      "ĠszeÅĽÄĩ": 3500,
      "Ġstudia": 3501,
      "Ġkraju": 3502,
      "nka": 3503,
      "ĠX": 3504,
      "ĠQue": 3505,
      "Ġjaj": 3506,
      "dziesiÄħ": 3507,
      "inam": 3508,
      "chasz": 3509,
      "Ġczyli": 3510,
      "Ġpuste": 3511,
      "Ġbliskich": 3512,
      "Ġbrowar": 3513,
      "ĠprzeÅ¼y": 3514,
      "Ġlet": 3515,
      "ĠWy": 3516,
      "Ġstara": 3517,
      "Ġye": 3518,
      "Ġkontro": 3519,
      "pew": 3520,
      "Ġsystem": 3521,
      "Ġsprawa": 3522,
      "Ġprawdziwy": 3523,
      "ĠwrogÃ³w": 3524,
      "Ġwspomnie": 3525,
      "lenia": 3526,
      "Ġniczego": 3527,
      "ĠpaÅĤa": 3528,
      "ĠRe": 3529,
      "szaÅĤem": 3530,
      "Ġbeat": 3531,
      "Ġkasy": 3532,
      "ĠszansÄĻ": 3533,
      "Ġwez": 3534,
      "Ġpoja": 3535,
      "Ġap": 3536,
      "rzyÅĤ": 3537,
      "Ġtypa": 3538,
      "ÅĦczy": 3539,
      "nosi": 3540,
      "âĢĶ": 3541,
      "Ġpada": 3542,
      "ĠPi": 3543,
      "ÅĽciÄĩ": 3544,
      "Ġpatrzysz": 3545,
      "stety": 3546,
      "Ġoku": 3547,
      "Ġzacho": 3548,
      "danie": 3549,
      "Ġmiesz": 3550,
      "...)": 3551,
      "ĠmÃ³wili": 3552,
      "Takie": 3553,
      "Ġlubisz": 3554,
      "Ġblask": 3555,
      "Ġhype": 3556,
      "Gra": 3557,
      "Ġsch": 3558,
      "eja": 3559,
      "Ġmacie": 3560,
      "Poz": 3561,
      "Ġsporo": 3562,
      "ĠkupiÄĩ": 3563,
      "ĠpatrzeÄĩ": 3564,
      "Ġprawo": 3565,
      "Ġzapra": 3566,
      "Ġbloki": 3567,
      "ĠsiÅĤ": 3568,
      "Ġpolski": 3569,
      "Ich": 3570,
      "mniej": 3571,
      "oku": 3572,
      "Ġnapi": 3573,
      "Ġpoch": 3574,
      "cik": 3575,
      "Ġude": 3576,
      "Ġkol": 3577,
      "towa": 3578,
      "towaÄĩ": 3579,
      "Ġprzeciw": 3580,
      "Ġdupie": 3581,
      "Ġkiesz": 3582,
      "ĠtÄĻsk": 3583,
      "Ġrzuca": 3584,
      "Ġreszta": 3585,
      "Ġprzodu": 3586,
      "LN": 3587,
      "fy": 3588,
      "ĠzÅĤam": 3589,
      "Ġcent": 3590,
      "czni": 3591,
      "Ġokaz": 3592,
      "Ġgen": 3593,
      "koÅĤa": 3594,
      "ĠbyÅĤeÅĽ": 3595,
      "lub": 3596,
      "urÄĻ": 3597,
      "Ġher": 3598,
      "Ġprzypom": 3599,
      "ĠWWA": 3600,
      "Ġpotrze": 3601,
      "Lubi": 3602,
      "ĠtaÅĦcz": 3603,
      "ĠzÄĻby": 3604,
      "Ġwje": 3605,
      "Ġzapy": 3606,
      "ĠuÅ¼y": 3607,
      "Cze": 3608,
      "Ġloka": 3609,
      "siÄħce": 3610,
      "ĠBoÅ¼e": 3611,
      "Ġpowoli": 3612,
      "Ġalkoho": 3613,
      "bem": 3614,
      "try": 3615,
      "yo": 3616,
      "Ġpres": 3617,
      "lady": 3618,
      "Ġwyb": 3619,
      "wiony": 3620,
      "ĠpaÅĦ": 3621,
      "Ġjednej": 3622,
      "ĠLu": 3623,
      "Ġbracie": 3624,
      "Dlaczego": 3625,
      "ĠpÄĻka": 3626,
      "Ġkilku": 3627,
      "ĠwÄħt": 3628,
      "Ġspokojnie": 3629,
      "Fi": 3630,
      "Ã³Åº": 3631,
      "Ġzagra": 3632,
      "Ġnikim": 3633,
      "ĠznajÄħ": 3634,
      "Ġkontak": 3635,
      "Ġsensu": 3636,
      "Ġstudio": 3637,
      "dzej": 3638,
      "ÅĤoÅĦ": 3639,
      "Ġsekun": 3640,
      "Ġrozumiem": 3641,
      "Ġciuchy": 3642,
      "Aha": 3643,
      "ĠÅ»": 3644,
      "Ġtle": 3645,
      "Ġosz": 3646,
      "wien": 3647,
      "ĠCa": 3648,
      "Ġkrzyw": 3649,
      "Ġprzemy": 3650,
      "Ġscena": 3651,
      "Ġsceny": 3652,
      "Ġrzucam": 3653,
      "Ġcodziennie": 3654,
      "RR": 3655,
      "Ġwor": 3656,
      "Ġdram": 3657,
      "ĠkÅĤo": 3658,
      "ĠTV": 3659,
      "Ġprosty": 3660,
      "Ġtrzech": 3661,
      "ĠduÅ¼e": 3662,
      "!\"": 3663,
      "Wczoraj": 3664,
      "gdzie": 3665,
      "ĠlÄĻ": 3666,
      "Ġsmo": 3667,
      "ĠzrÃ³b": 3668,
      "ĠdajÄħ": 3669,
      "woÅĽci": 3670,
      "dor": 3671,
      "Jakbym": 3672,
      "Nadal": 3673,
      "ĠkurwÄĻ": 3674,
      "Ġryt": 3675,
      "ĠpiÄĻknie": 3676,
      "ĠpeÅĤne": 3677,
      "Ġkumasz": 3678,
      "ĠpotrafiÄĻ": 3679,
      "Ġemocje": 3680,
      "ĠFilip": 3681,
      "Im": 3682,
      "fu": 3683,
      "praw": 3684,
      "zÄħ": 3685,
      "iera": 3686,
      "Ġwreszcie": 3687,
      "Ġmej": 3688,
      "ajem": 3689,
      "tyl": 3690,
      "Ġpad": 3691,
      "ĠpÄĻt": 3692,
      "Gru": 3693,
      "Ġtan": 3694,
      "ĠwiÄĻ": 3695,
      "ryz": 3696,
      "Ġhu": 3697,
      "Ġbudzi": 3698,
      "ĠrÄĻki": 3699,
      "Ġokej": 3700,
      "pet": 3701,
      "wkÄĻ": 3702,
      "Ġem": 3703,
      "ÅĤka": 3704,
      "Ġzad": 3705,
      "ĠdosyÄĩ": 3706,
      "Ġtygo": 3707,
      "wol": 3708,
      "Ġpato": 3709,
      "Czar": 3710,
      "Szuk": 3711,
      "ĠwÃ³da": 3712,
      "Ġpozdro": 3713,
      "ĠjakaÅĽ": 3714,
      "Ġri": 3715,
      "niÅĤem": 3716,
      "Ġcof": 3717,
      "ĠtydzieÅĦ": 3718,
      "Ġranem": 3719,
      "Ġnosi": 3720,
      "ĠSB": 3721,
      "ĠpodwÃ³r": 3722,
      "ĠPro": 3723,
      "DziÄĻki": 3724,
      "ĠznaleÅºÄĩ": 3725,
      "Ġbierze": 3726,
      "MaÅĤa": 3727,
      "jeÅ¼dÅ¼am": 3728,
      "ĠbÃ³lu": 3729,
      "GÅĤo": 3730,
      "sÃ³b": 3731,
      "ĠdÅĤuÅ¼": 3732,
      "Ġnasza": 3733,
      "Ġpoda": 3734,
      "Ġczwar": 3735,
      "Ġkurew": 3736,
      "niejsze": 3737,
      "ĠwspÃ³l": 3738,
      "Zobacz": 3739,
      "Ġweekend": 3740,
      "WJ": 3741,
      "jem": 3742,
      "tar": 3743,
      "Ġlan": 3744,
      "ÅĤbyÅĽ": 3745,
      "Ġswa": 3746,
      "Ġdres": 3747,
      "Ġklam": 3748,
      "Ġzegar": 3749,
      "ĠWi": 3750,
      "Ġpierdoli": 3751,
      "Przed": 3752,
      "ĠsiÅĤy": 3753,
      "pierdalaÄĩ": 3754,
      "Ġnajlepsze": 3755,
      "sÅĤuchaj": 3756,
      "tuj": 3757,
      "Ġwami": 3758,
      "Ġmur": 3759,
      "akaÄĩ": 3760,
      "niemy": 3761,
      "Ġpojeb": 3762,
      "ĠporaÅ¼": 3763,
      "Ġfol": 3764,
      "ĠGo": 3765,
      "ĠgÅĤupie": 3766,
      "ĠpiÄĻkna": 3767,
      "ĠwrÃ³ci": 3768,
      "Ġzasad": 3769,
      "Gram": 3770,
      "gna": 3771,
      "zny": 3772,
      "ĠpÅĤu": 3773,
      "Ġznika": 3774,
      "szaÅĤ": 3775,
      "Ġkana": 3776,
      "ĠkrÄħ": 3777,
      "Ġdebi": 3778,
      "ĠÅ¼adna": 3779,
      "Ġgruby": 3780,
      "Ġrodziny": 3781,
      "ĠzwyciÄĻ": 3782,
      "Hip": 3783,
      "Ġknow": 3784,
      "Ġdon": 3785,
      "ĠmaÄĩ": 3786,
      "Ġwyr": 3787,
      "Ġur": 3788,
      "Ġszmal": 3789,
      "Chwi": 3790,
      "ĠnoszÄĻ": 3791,
      "Jakby": 3792,
      "Nad": 3793,
      "ĠSh": 3794,
      "Ġbanie": 3795,
      "Ġgdybym": 3796,
      "ĠÅĤap": 3797,
      "MyÅĽli": 3798,
      "ĠmÃ³wiÄħc": 3799,
      "skiej": 3800,
      "ĠpisaÄĩ": 3801,
      "Ġdragi": 3802,
      "Ġszklan": 3803,
      "He": 3804,
      "Wz": 3805,
      "bla": 3806,
      "psu": 3807,
      "amie": 3808,
      "arak": 3809,
      "Ġdowie": 3810,
      "lujÄĻ": 3811,
      "Ġflex": 3812,
      "ĠCar": 3813,
      "tua": 3814,
      "Ġbaby": 3815,
      "Ġwolny": 3816,
      "Ġszkoda": 3817,
      "Ġtelewiz": 3818,
      "Ġarty": 3819,
      "Ġdziecka": 3820,
      "Ġsprzeda": 3821,
      "ĠwejÅĽÄĩ": 3822,
      "ÅĤania": 3823,
      "Ġwasz": 3824,
      "ĠbÅĤa": 3825,
      "Ġdoros": 3826,
      "Ġodej": 3827,
      "utro": 3828,
      "ĠliczyÄĩ": 3829,
      "ĠGi": 3830,
      "Ġuciec": 3831,
      "Ġprzekaz": 3832,
      "âĢĵ": 3833,
      "niaÅĤ": 3834,
      "gii": 3835,
      "Ġpewien": 3836,
      "ĠrobiÅĤ": 3837,
      "ĠRap": 3838,
      "Ġkup": 3839,
      "Ġludziom": 3840,
      "ĠzÅĤoto": 3841,
      "iadam": 3842,
      "Ġdawna": 3843,
      "ĠzarobiÄĩ": 3844,
      "WszÄĻdzie": 3845,
      "Ġznie": 3846,
      "Ġkwest": 3847,
      "ian": 3848,
      "ĠWa": 3849,
      "ĠÅĤaÅĦcu": 3850,
      "emix": 3851,
      "ĠnadziejÄĻ": 3852,
      "Ġwidok": 3853,
      "Cie": 3854,
      "Zro": 3855,
      "set": 3856,
      "ĠswÄħ": 3857,
      "amo": 3858,
      "Ġnara": 3859,
      "Ġzacz": 3860,
      "Ġwier": 3861,
      "Ġwiecznie": 3862,
      "Ġwino": 3863,
      "ĠBiaÅĤas": 3864,
      "ĠTom": 3865,
      "ĠsposÃ³b": 3866,
      "ĠmÃ³wiÅĤem": 3867,
      "TeÅ¼": 3868,
      "Wiel": 3869,
      "ĠktÃ³rego": 3870,
      "ĠpomyÅĽ": 3871,
      "Spraw": 3872,
      "ĠpoczÄħtku": 3873,
      "Ġzajebi": 3874,
      "Wal": 3875,
      "vi": 3876,
      "Ġbre": 3877,
      "chni": 3878,
      "roÅĽÄĩ": 3879,
      "Ġpokoj": 3880,
      "owej": 3881,
      "Ġtata": 3882,
      "ĠÅ¼adne": 3883,
      "Ġwzrok": 3884,
      "Ġbrakuje": 3885,
      "ĠskoÅĦczyÄĩ": 3886,
      "Ġszkole": 3887,
      "WchodzÄĻ": 3888,
      "ban": 3889,
      "lamy": 3890,
      "Ġzwi": 3891,
      "Ġzgar": 3892,
      "stka": 3893,
      "ĠniewaÅ¼ne": 3894,
      "ĠdokÅĤadnie": 3895,
      "tape": 3896,
      "Ġwycho": 3897,
      "Ġwypad": 3898,
      "Ġubra": 3899,
      "Ġsport": 3900,
      "Ġprzytu": 3901,
      "Ġlaj": 3902,
      "ĠPe": 3903,
      "ĠDi": 3904,
      "Ġtran": 3905,
      "Ġlot": 3906,
      "Ġkolega": 3907,
      "Ġhote": 3908,
      "ĠbiaÅĤy": 3909,
      "tnoÅĽÄĩ": 3910,
      "zwy": 3911,
      "Ġkat": 3912,
      "rol": 3913,
      "ajaj": 3914,
      "Niby": 3915,
      "ĠpÅĤacz": 3916,
      "Ġwyjdzie": 3917,
      "ĠdÅºwiÄĻk": 3918,
      "bez": 3919,
      "mÄħ": 3920,
      "uis": 3921,
      "zji": 3922,
      "ĠÐ": 3923,
      "Ġtlen": 3924,
      "Ġzbiera": 3925,
      "iÄĻdzy": 3926,
      "Ġwyobra": 3927,
      "Ġspe": 3928,
      "Ġwina": 3929,
      "Ġznak": 3930,
      "ĠpodÅĤo": 3931,
      "Ġchore": 3932,
      "ÅĽcig": 3933,
      "ĠwrÃ³cÄĻ": 3934,
      "ĠtÅĤum": 3935,
      "quad": 3936,
      "Ġdiab": 3937,
      "Kom": 3938,
      "gia": 3939,
      "ĠklÄĻ": 3940,
      "ĠksiÄħ": 3941,
      "dzieli": 3942,
      "Ġobraz": 3943,
      "Ġnajgor": 3944,
      "wiÄĻÄĩ": 3945,
      "Ġkilo": 3946,
      "Ġpierwszej": 3947,
      "ĠÅĽcier": 3948,
      "Ġzwrotki": 3949,
      "Ġszmaty": 3950,
      "ĠrzeczywistoÅĽÄĩ": 3951,
      "One": 3952,
      "Ry": 3953,
      "Tego": 3954,
      "Ġnale": 3955,
      "rzenie": 3956,
      "jek": 3957,
      "ÅĦski": 3958,
      "ĠwierzyÄĩ": 3959,
      "ĠTak": 3960,
      "ĠTra": 3961,
      "Ġpapie": 3962,
      "ĠWie": 3963,
      "PÅĤy": 3964,
      "gon": 3965,
      "ĠwÅĽrÃ³d": 3966,
      "roni": 3967,
      "Ġzapa": 3968,
      "Ġaf": 3969,
      "rzyÅĤem": 3970,
      "Ġmist": 3971,
      "Nienawi": 3972,
      "ĠÅĽpiÄĻ": 3973,
      "kuje": 3974,
      "Ġwalki": 3975,
      "ĠdÅĤoÅĦ": 3976,
      "Ġzarabia": 3977,
      "Ġfrajer": 3978,
      "AT": 3979,
      "glÄħda": 3980,
      "Ġun": 3981,
      "biÄħ": 3982,
      "Ġodda": 3983,
      "ĠÅ¼yci": 3984,
      "ĠtracÄĻ": 3985,
      "Ġparty": 3986,
      "ĠmuzykÄĻ": 3987,
      "MÃ³wisz": 3988,
      "ĠpomoÅ¼e": 3989,
      "Kon": 3990,
      "Ru": 3991,
      "dra": 3992,
      "pany": 3993,
      "sÅĤy": 3994,
      "Ġsil": 3995,
      "Ġzgubi": 3996,
      "szÅĤa": 3997,
      "ĠkÅĤÃ³": 3998,
      "las": 3999,
      "ĠuwaÅ¼": 4000,
      "ĠprzestaÅĦ": 4001,
      "Ġodwie": 4002,
      "Ġboku": 4003,
      "Ġskle": 4004,
      "ĠziomkÃ³w": 4005,
      "Ġex": 4006,
      "Ġbierz": 4007,
      "ĠPolski": 4008,
      "Ġjutra": 4009,
      "Ġnawijam": 4010,
      "Ġskurwysynu": 4011,
      "Ot": 4012,
      "ury": 4013,
      "Ġczap": 4014,
      "ciÃ³ÅĤ": 4015,
      "Ġmatki": 4016,
      "Ġoddy": 4017,
      "ĠMat": 4018,
      "ĠbawiÄĩ": 4019,
      "Ġdobrych": 4020,
      "ĠsÅĤaby": 4021,
      "IP": 4022,
      "gÅĤa": 4023,
      "ĠniektÃ³": 4024,
      "Ġpos": 4025,
      "ĠporzÄħd": 4026,
      "Ġdop": 4027,
      "ĠdokÄħd": 4028,
      "kin": 4029,
      "Ġaha": 4030,
      "mach": 4031,
      "Ġtrac": 4032,
      "Ġdefini": 4033,
      "Ġpubli": 4034,
      "pera": 4035,
      "dzenie": 4036,
      "WiÄĻcej": 4037,
      "Ġkomp": 4038,
      "Ġfury": 4039,
      "aaa": 4040,
      "ĠczuÅĤem": 4041,
      "WolÄĻ": 4042,
      "ĠInsta": 4043,
      "ĠwieczÃ³r": 4044,
      "bum": 4045,
      "dÅĤu": 4046,
      "Ġ6": 4047,
      "Ġrz": 4048,
      "Ġsio": 4049,
      "ĠpokÃ³j": 4050,
      "ling": 4051,
      "waÅĤy": 4052,
      "rzenia": 4053,
      "Ġzapach": 4054,
      "Ã³wki": 4055,
      "owÄħ": 4056,
      "Ġwysy": 4057,
      "wieÅĦ": 4058,
      "Ġpodnie": 4059,
      "Ġziomki": 4060,
      "ĠcieÅĦ": 4061,
      "Ġkrzyk": 4062,
      "Ġotwo": 4063,
      "Ġtrum": 4064,
      "Musisz": 4065,
      "ĠdÅĤonie": 4066,
      "CiÄĻ": 4067,
      "Dru": 4068,
      "wno": 4069,
      "Ġpoje": 4070,
      "Ġzawo": 4071,
      "Ġwyje": 4072,
      "JeÅ¼eli": 4073,
      "Ġlogo": 4074,
      "Ġdziwki": 4075,
      "ĠforsÄĻ": 4076,
      "Ġraperem": 4077,
      "ĠÄĩp": 4078,
      "Ġgrzech": 4079,
      "KtÃ³ry": 4080,
      "ĠosÃ³b": 4081,
      "Ġteren": 4082,
      "Ġhardcore": 4083,
      "Wa": 4084,
      "lne": 4085,
      "nku": 4086,
      "Ġzio": 4087,
      "Ġniedo": 4088,
      "czku": 4089,
      "Ġjakim": 4090,
      "ĠwyÅĽ": 4091,
      "Ġwybacz": 4092,
      "Ġszpi": 4093,
      "Ġhar": 4094,
      "Pozna": 4095,
      "Ġdasz": 4096,
      "ĠdziesiÄĻ": 4097,
      "Ġpachnie": 4098,
      "Ġmych": 4099,
      "Zaraz": 4100,
      "ĠstaÅĤo": 4101,
      "Ġpowiesz": 4102,
      "ĠsÅĤuchaj": 4103,
      "Ġbitch": 4104,
      "ĠwÃ³dÄĻ": 4105,
      "Jedna": 4106,
      "ZÅĤo": 4107,
      "ech": 4108,
      "rÃ³j": 4109,
      "wamy": 4110,
      "roku": 4111,
      "alny": 4112,
      "ĠpowiedziaÅĤ": 4113,
      "Ġruchy": 4114,
      "ĠtrzeÅº": 4115,
      "Ġdrugim": 4116,
      "Ġmuzyki": 4117,
      "Ġdiss": 4118,
      "Ġwysoko": 4119,
      "KrÄĻ": 4120,
      "hone": 4121,
      "jo": 4122,
      "rie": 4123,
      "Ġoraz": 4124,
      "ĠosiÄħ": 4125,
      "Ġpoprze": 4126,
      "wagi": 4127,
      "ĠÅ¼al": 4128,
      "Ġchwy": 4129,
      "Ġdotk": 4130,
      "Ġmatka": 4131,
      "ĠPLN": 4132,
      "ĠcaÅĤkiem": 4133,
      "Ġjebana": 4134,
      "Ġkobiety": 4135,
      "ĠpÅĤonie": 4136,
      "Pewnie": 4137,
      "skÄĻ": 4138,
      "Jakie": 4139,
      "chach": 4140,
      "ĠnajwiÄĻk": 4141,
      "Ġgrubo": 4142,
      "Najpierw": 4143,
      "PS": 4144,
      "ger": 4145,
      "lony": 4146,
      "wu": 4147,
      "stej": 4148,
      "rad": 4149,
      "Ġpodob": 4150,
      "wala": 4151,
      "ĠwyÅ¼ej": 4152,
      "Ġprzede": 4153,
      "pat": 4154,
      "Åºni": 4155,
      "wyk": 4156,
      "Ġbicie": 4157,
      "Ġzdanie": 4158,
      "very": 4159,
      "wania": 4160,
      "Ġsal": 4161,
      "kowy": 4162,
      "ĠtyÅĤu": 4163,
      "tyki": 4164,
      "ĠradÄĻ": 4165,
      "paÅĽÄĩ": 4166,
      "Tede": 4167,
      "WidziaÅĤem": 4168,
      "ĠbÅĤÄĻdy": 4169,
      "iny": 4170,
      "ĠmaÅĤ": 4171,
      "ruje": 4172,
      "fii": 4173,
      "Ġulicach": 4174,
      "Ġ20": 4175,
      "ĠkasÄĻ": 4176,
      "PiszÄĻ": 4177,
      "Ġgwiazdy": 4178,
      "ĠwÅĤosy": 4179,
      "Pom": 4180,
      "lom": 4181,
      "Ġkoch": 4182,
      "cel": 4183,
      "wienia": 4184,
      "Ġprzetr": 4185,
      "Åºdzie": 4186,
      "iÅĽnie": 4187,
      "Ġchory": 4188,
      "Ġrazu": 4189,
      "Ġpytam": 4190,
      "ĠmyÅĽlaÅĤem": 4191,
      "Jej": 4192,
      "Ġti": 4193,
      "Ġsnach": 4194,
      "ĠmÃ³c": 4195,
      "Ġpodo": 4196,
      "Ġwyk": 4197,
      "Ã³jrz": 4198,
      "ĠRi": 4199,
      "Ġstale": 4200,
      "mij": 4201,
      "ĠÅĽwiatÅĤa": 4202,
      "cjach": 4203,
      "Ġhit": 4204,
      "Ġthis": 4205,
      "ĠpizdÄĻ": 4206,
      "ĠprzyjaciÃ³ÅĤ": 4207,
      "Ġpokoju": 4208,
      "bby": 4209,
      "dnia": 4210,
      "mak": 4211,
      "ĠÅĤu": 4212,
      "Ġtre": 4213,
      "raÅĤ": 4214,
      "Ġoto": 4215,
      "Ġoczu": 4216,
      "Ġrany": 4217,
      "Ġprzek": 4218,
      "Ġhas": 4219,
      "pala": 4220,
      "Ġkawa": 4221,
      "Ġczasach": 4222,
      "ĠAn": 4223,
      "Ġmelo": 4224,
      "Ġciep": 4225,
      "ĠMaffi": 4226,
      "Ġkochasz": 4227,
      "ĠgÅĤoÅĽno": 4228,
      "ChÅĤopak": 4229,
      "Skurwysy": 4230,
      "Ġtalent": 4231,
      "Di": 4232,
      "Kil": 4233,
      "Ġsez": 4234,
      "Ġnarze": 4235,
      "Ġtowa": 4236,
      "Ġidio": 4237,
      "Ġgno": 4238,
      "Ġcharak": 4239,
      "ari": 4240,
      "king": 4241,
      "ĠmaÅĤe": 4242,
      "ryt": 4243,
      "wisz": 4244,
      "Ġdzw": 4245,
      "ĠÅĽpi": 4246,
      "Ġnoce": 4247,
      "ĠMor": 4248,
      "ĠprzyszÅĤo": 4249,
      "wyÅ¼": 4250,
      "dziaÅĤa": 4251,
      "Ġsytua": 4252,
      "fit": 4253,
      "ĠzapÅĤa": 4254,
      "ĠÅ¼adnej": 4255,
      "Ġwolno": 4256,
      "Ġzabija": 4257,
      "Ġrozumiesz": 4258,
      "ĠwziÄħÄĩ": 4259,
      "Ġkieszeni": 4260,
      "cko": 4261,
      "ckie": 4262,
      "mer": 4263,
      "ĠnÃ³Å¼": 4264,
      "Ġwsta": 4265,
      "Ġoch": 4266,
      "kor": 4267,
      "Ġwyle": 4268,
      "Ġkoka": 4269,
      "omba": 4270,
      "ĠstrzaÅĤ": 4271,
      "ĠprzypaÅĤ": 4272,
      "ĠskÅĤa": 4273,
      "Åģap": 4274,
      "ĠszczÄĻÅĽli": 4275,
      "ĠÅĽmiesz": 4276,
      "ĠdÅĤugi": 4277,
      "ĠmÃ³gÅĤbym": 4278,
      "Dro": 4279,
      "JoÅĤ": 4280,
      "Mat": 4281,
      "Ġram": 4282,
      "ÅĤÃ³Å¼": 4283,
      "ĠzwiÄħz": 4284,
      "sztaÅĤ": 4285,
      "akiem": 4286,
      "rzyk": 4287,
      "Ġwygry": 4288,
      "ĠpiszÄħ": 4289,
      "Ġego": 4290,
      "Ġlatam": 4291,
      "ĠzakrÄĻ": 4292,
      "Ġnowych": 4293,
      "ĠmoÅ¼emy": 4294,
      "ĠNike": 4295,
      "hy": 4296,
      "Ġpowi": 4297,
      "ĠposzÅĤo": 4298,
      "ant": 4299,
      "Ġwyrzu": 4300,
      "Ġwybu": 4301,
      "Ġbycie": 4302,
      "bin": 4303,
      "Ġkos": 4304,
      "ÅĦcz": 4305,
      "wiej": 4306,
      "Ġodpu": 4307,
      "dowa": 4308,
      "ĠWas": 4309,
      "ĠÅĽwiatÅĤo": 4310,
      "rrt": 4311,
      "ĠresztÄĻ": 4312,
      "Ġskurwysyny": 4313,
      "ĠkomuÅĽ": 4314,
      "Faj": 4315,
      "Ġwsze": 4316,
      "Ġmym": 4317,
      "Ġpopi": 4318,
      "line": 4319,
      "ĠÅ¼Ã³ÅĤ": 4320,
      "cis": 4321,
      "ream": 4322,
      "ĠÅĽmi": 4323,
      "ĠBen": 4324,
      "Ġczasami": 4325,
      "Ġbije": 4326,
      "Ġznalaz": 4327,
      "Ġmorda": 4328,
      "LecÄĻ": 4329,
      "ĠzÅĤote": 4330,
      "KaÅ¼da": 4331,
      "ĠraperÃ³w": 4332,
      "Ġnikomu": 4333,
      "kaj": 4334,
      "vel": 4335,
      "Ġel": 4336,
      "ĠzdÄħ": 4337,
      "arÅĤ": 4338,
      "owiem": 4339,
      "Ġtylu": 4340,
      "ĠtakÅ¼e": 4341,
      "ĠwiedziaÅĤem": 4342,
      "szeÄĩ": 4343,
      "des": 4344,
      "ĠduszÄĻ": 4345,
      "iÄĻkujÄĻ": 4346,
      "Ġdruga": 4347,
      "ĠgÅĤup": 4348,
      "Ġszacunek": 4349,
      "Ġkobiet": 4350,
      "wnÄħ": 4351,
      "Ġjaram": 4352,
      "rowa": 4353,
      "nica": 4354,
      "Ġraj": 4355,
      "Ġskrzy": 4356,
      "Ġzama": 4357,
      "ĠzÅĤotych": 4358,
      "Ġstronie": 4359,
      "ĠpoznaÄĩ": 4360,
      "Ġlekko": 4361,
      "Ġosiem": 4362,
      "Bra": 4363,
      "ker": 4364,
      "Ġtraw": 4365,
      "Ġzej": 4366,
      "cznych": 4367,
      "Ġpojebany": 4368,
      "ĠzabraÄĩ": 4369,
      "owia": 4370,
      "Ġwys": 4371,
      "luje": 4372,
      "Ġspy": 4373,
      "Ġstawia": 4374,
      "Ġkuta": 4375,
      "ĠgraÅĤ": 4376,
      "ĠÅĤapiÄĻ": 4377,
      "Ġstole": 4378,
      "ĠwersÃ³w": 4379,
      "ĠbroÅĦ": 4380,
      "ĠwÅĤasne": 4381,
      "Dalej": 4382,
      "bardziej": 4383,
      "Lo": 4384,
      "dÅĤa": 4385,
      "hu": 4386,
      "uch": 4387,
      "Ð¾": 4388,
      "Ġzgo": 4389,
      "Ġzast": 4390,
      "Ġstwo": 4391,
      "Nasze": 4392,
      "Ġrek": 4393,
      "Ġzrozum": 4394,
      "ĠsÅĤyszysz": 4395,
      "Ġkiep": 4396,
      "Ġostatnie": 4397,
      "DzieÅĦ": 4398,
      "ĠnowÄħ": 4399,
      "ĠzdjÄĻcia": 4400,
      "Ġvibe": 4401,
      "ĠkoleÅ¼an": 4402,
      "ls": 4403,
      "mujÄĻ": 4404,
      "tkach": 4405,
      "Ġ9": 4406,
      "Ġgr": 4407,
      "rzeÅĦ": 4408,
      "Ġzarobi": 4409,
      "Ġstart": 4410,
      "ĠAr": 4411,
      "akaz": 4412,
      "ĠzobaczyÄĩ": 4413,
      "Ġkasa": 4414,
      "Dziewczy": 4415,
      "Ġsztuki": 4416,
      "ĠÅĽciany": 4417,
      "Ġchacie": 4418,
      "ĠpÃ³jdÄĻ": 4419,
      "Ġspierda": 4420,
      "Tym": 4421,
      "powie": 4422,
      "Ġpry": 4423,
      "Ġwhat": 4424,
      "razy": 4425,
      "Ġgle": 4426,
      "Ġzawie": 4427,
      "Ġwiny": 4428,
      "ĠBig": 4429,
      "Ġczysty": 4430,
      "Ġalbum": 4431,
      "KtÃ³re": 4432,
      "ĠpoczuÄĩ": 4433,
      "Bia": 4434,
      "MÅĤo": 4435,
      "his": 4436,
      "rzyst": 4437,
      "Ġniu": 4438,
      "ĠspÄĻ": 4439,
      "Ġsolo": 4440,
      "MoÅ¼": 4441,
      "Ġeta": 4442,
      "Ġpowietrze": 4443,
      "ĠpytajÄħ": 4444,
      "mos": 4445,
      "nikÃ³w": 4446,
      "ĠcaÅĤym": 4447,
      "Ġsamocho": 4448,
      "ĠwziÄĻ": 4449,
      "Ġkredy": 4450,
      "ĠchÅĤopakÃ³w": 4451,
      "Ġkoncerty": 4452,
      "jeÅ¼dÅ¼a": 4453,
      "Ġjedyne": 4454,
      "bek": 4455,
      "Ġtar": 4456,
      "Ġbrzyd": 4457,
      "Ġkwi": 4458,
      "dzony": 4459,
      "kowi": 4460,
      "dzieÅĽcia": 4461,
      "ĠminÄĻ": 4462,
      "ase": 4463,
      "Ġoddech": 4464,
      "Åºnie": 4465,
      "ĠMy": 4466,
      "Ġpoziom": 4467,
      "Ġmiejsc": 4468,
      "Ġkiesze": 4469,
      "Ã³lnie": 4470,
      "ĠpokazaÄĩ": 4471,
      "ĠrodzinÄĻ": 4472,
      "Ġpizdy": 4473,
      "ĠpÃ³Åºno": 4474,
      "Ġraperzy": 4475,
      "Wpad": 4476,
      "lie": 4477,
      "lia": 4478,
      "okoÅĤa": 4479,
      "czam": 4480,
      "czem": 4481,
      "ciera": 4482,
      "Ġwych": 4483,
      "lubi": 4484,
      "Ġwiemy": 4485,
      "ĠBar": 4486,
      "Ġciszy": 4487,
      "Ġzera": 4488,
      "beÅĤ": 4489,
      "Ġwalka": 4490,
      "ĠpeÅĤna": 4491,
      "Ġkumpli": 4492,
      "ĠwolnoÅĽÄĩ": 4493,
      "ĠtÅĤuma": 4494,
      "StojÄĻ": 4495,
      "ĠwracaÄĩ": 4496,
      "Ġrozkmi": 4497,
      "Ga": 4498,
      "WrÃ³": 4499,
      "Ġpli": 4500,
      "ĠbÃ³j": 4501,
      "dziÄĻ": 4502,
      "ĠzaÅĽ": 4503,
      "Ġuszy": 4504,
      "cek": 4505,
      "asi": 4506,
      "ciaÅĤ": 4507,
      "Ġgorzej": 4508,
      "Ġkontra": 4509,
      "ĠpracÄĻ": 4510,
      "Åģa": 4511,
      "Ġrzecz": 4512,
      "Ġener": 4513,
      "Ġistnie": 4514,
      "Mnie": 4515,
      "Pan": 4516,
      "bÃ³w": 4517,
      "bry": 4518,
      "dujÄĻ": 4519,
      "ÄĨ": 4520,
      "kowe": 4521,
      "Ġab": 4522,
      "Ġwyja": 4523,
      "luj": 4524,
      "Ġstru": 4525,
      "ĠSy": 4526,
      "ĠwodÄĻ": 4527,
      "ĠAir": 4528,
      "Ġbute": 4529,
      "Ġbuzi": 4530,
      "ĠpiekÅĤa": 4531,
      "Noc": 4532,
      "Ġbanda": 4533,
      "Widzisz": 4534,
      "rÃ³buj": 4535,
      "Ġfakt": 4536,
      "Pytasz": 4537,
      "Robimy": 4538,
      "ĠwjeÅ¼dÅ¼a": 4539,
      "ye": 4540,
      "Ġprez": 4541,
      "ÅĤap": 4542,
      "Ġwydaje": 4543,
      "Ġuh": 4544,
      "ĠdzwoÅĦ": 4545,
      "Åºle": 4546,
      "kiet": 4547,
      "piÅĤem": 4548,
      "adko": 4549,
      "Ġzrobisz": 4550,
      "Ġczarny": 4551,
      "Ġwiara": 4552,
      "Ġskill": 4553,
      "Skoro": 4554,
      "Me": 4555,
      "Wracam": 4556,
      "dro": 4557,
      "twa": 4558,
      "vo": 4559,
      "Î¿": 4560,
      "Ġplik": 4561,
      "Ġjedzie": 4562,
      "waÅĤo": 4563,
      "Å¼enie": 4564,
      "ĠGang": 4565,
      "Ġreprezent": 4566,
      "Ġobs": 4567,
      "czÄħc": 4568,
      "ĠpÅĤynÄĻ": 4569,
      "szcza": 4570,
      "ceni": 4571,
      "Ġpierwszym": 4572,
      "ĠwiÄĻkszoÅĽÄĩ": 4573,
      "ĠkÅĤadÄĻ": 4574,
      "school": 4575,
      "ĠMaffija": 4576,
      "Dwie": 4577,
      "Oto": 4578,
      "kuj": 4579,
      "spi": 4580,
      "Ġbrze": 4581,
      "stans": 4582,
      "iaÅĤ": 4583,
      "Ġah": 4584,
      "Ġminu": 4585,
      "Ġzepsu": 4586,
      "Ġtracki": 4587,
      "Ġtrzeci": 4588,
      "ĠwalÄĻ": 4589,
      "ĠczÄĻÅĽciej": 4590,
      "Ġdziewczyn": 4591,
      "Ġdiament": 4592,
      "Ġziemia": 4593,
      "Ġdarmo": 4594,
      "Sza": 4595,
      "Ġmon": 4596,
      "Ġledwo": 4597,
      "Ġrozma": 4598,
      "Ġwody": 4599,
      "ĠrobiÅĤem": 4600,
      "dziaÅĤeÅĽ": 4601,
      "Ġzamu": 4602,
      "Wielu": 4603,
      "ĠBogiem": 4604,
      "ĠczymÅĽ": 4605,
      "ĠmoÅ¼li": 4606,
      "Ġmiliony": 4607,
      "ĠtypÃ³w": 4608,
      "ĠbiaÅĤe": 4609,
      "kto": 4610,
      "tow": 4611,
      "udo": 4612,
      "wow": 4613,
      "ĠtysiÄħce": 4614,
      "ĠkochaÄĩ": 4615,
      "ĠÅĽci": 4616,
      "ĠÅĽcieÅ¼": 4617,
      "etto": 4618,
      "ĠwidziaÅĤ": 4619,
      "Ġdala": 4620,
      "Ġznamy": 4621,
      "Ġpowiet": 4622,
      "Ġokno": 4623,
      "pierdoliÄĩ": 4624,
      "ĠpytaÅĦ": 4625,
      "Ġznajdziesz": 4626,
      "ĠzapomnieÄĩ": 4627,
      "Ġfakty": 4628,
      "Ġpens": 4629,
      "ĠjakÄħÅĽ": 4630,
      "ZrÃ³b": 4631,
      "par": 4632,
      "Ġtri": 4633,
      "ĠciÅĽnie": 4634,
      "ĠjeÅ¼eli": 4635,
      "lat": 4636,
      "Ġkola": 4637,
      "ĠszÃ³": 4638,
      "Ġszar": 4639,
      "Ġprac": 4640,
      "ĠrÄĻka": 4641,
      "ĠbiegnÄĻ": 4642,
      "Å»yjÄĻ": 4643,
      "Ġzostanie": 4644,
      "ĠpiÄĻkny": 4645,
      "ĠwrÃ³ciÄĩ": 4646,
      "Ġfajne": 4647,
      "Ġzmieniam": 4648,
      "Ġkolor": 4649,
      "ĠwezmÄĻ": 4650,
      "Sk": 4651,
      "grze": 4652,
      "Ġwow": 4653,
      "Ġbun": 4654,
      "iaÅĤem": 4655,
      "roz": 4656,
      "Ġzabie": 4657,
      "stach": 4658,
      "ĠMich": 4659,
      "Ġcio": 4660,
      "Ġdecy": 4661,
      "Ġbrata": 4662,
      "Ðµm": 4663,
      "Ġszyi": 4664,
      "Ġkolejna": 4665,
      "Ġporno": 4666,
      "Ġnew": 4667,
      "Ġzarabiam": 4668,
      "Pierwszy": 4669,
      "Ġniewiele": 4670,
      "Ki": 4671,
      "przy": 4672,
      "Ġ0": 4673,
      "Ġtur": 4674,
      "Ġjaja": 4675,
      "szta": 4676,
      "stajÄħ": 4677,
      "ĠdostaÄĩ": 4678,
      "nice": 4679,
      "dzieÅĽci": 4680,
      "ĠmiÅĤo": 4681,
      "Ġwypierdalaj": 4682,
      "Ġuczy": 4683,
      "NiewaÅ¼ne": 4684,
      "Ġfra": 4685,
      "Ġfru": 4686,
      "ĠwiedziaÅĤ": 4687,
      "ĠWiel": 4688,
      "ĠÅĤapy": 4689,
      "eep": 4690,
      "ĠtaÅĦczÄĻ": 4691,
      "Ġwyma": 4692,
      "Ġwymy": 4693,
      "Ġojciec": 4694,
      "ĠgardÅĤo": 4695,
      "Ġbanknot": 4696,
      "CiÄĻÅ¼": 4697,
      "PiÄĻ": 4698,
      "WaÅ¼": 4699,
      "Ġzie": 4700,
      "Ġznisz": 4701,
      "lack": 4702,
      "Ġzau": 4703,
      "ĠzasiÄĻ": 4704,
      "paÅĤem": 4705,
      "ruk": 4706,
      "Ġdzielni": 4707,
      "Ġpije": 4708,
      "Ġmiastem": 4709,
      "ell": 4710,
      "ĠzapamiÄĻ": 4711,
      "ĠVi": 4712,
      "Ġpomoc": 4713,
      "Ġpieprz": 4714,
      "ĠdÅºwiÄĻ": 4715,
      "Ġekipa": 4716,
      "Ġbrzmi": 4717,
      "Jedyne": 4718,
      "Ġgniew": 4719,
      "MÃ³g": 4720,
      "bki": 4721,
      "dÅĤo": 4722,
      "ya": 4723,
      "Ġrak": 4724,
      "Ġmak": 4725,
      "Ġdur": 4726,
      "Ġklo": 4727,
      "dzaÄĩ": 4728,
      "ror": 4729,
      "liz": 4730,
      "lum": 4731,
      "Jaki": 4732,
      "ĠTu": 4733,
      "illa": 4734,
      "Ġsynu": 4735,
      "niÄĻte": 4736,
      "olly": 4737,
      "Ġdzieciaki": 4738,
      "Znasz": 4739,
      "hite": 4740,
      "Ġportfel": 4741,
      "Jutro": 4742,
      "blo": 4743,
      "tamy": 4744,
      "Ġswego": 4745,
      "Ġzu": 4746,
      "stym": 4747,
      "Ġponie": 4748,
      "Ġkoks": 4749,
      "Ġprzewi": 4750,
      "doÅĽÄĩ": 4751,
      "ĠspÅĤy": 4752,
      "Ġnos": 4753,
      "ĠCzy": 4754,
      "syp": 4755,
      "ĠdziewiÄĻÄĩ": 4756,
      "ByÄĩ": 4757,
      "ByÅĤo": 4758,
      "Ġbiec": 4759,
      "ĠkrÄĻcÄĻ": 4760,
      "ĠwrÃ³g": 4761,
      "Ġkoncercie": 4762,
      "Ġwiary": 4763,
      "CaÅĤa": 4764,
      "Ġczekaj": 4765,
      "Ġplecach": 4766,
      "Ooo": 4767,
      "lnoÅĽÄĩ": 4768,
      "wÃ³l": 4769,
      "Ġsnu": 4770,
      "Ġwho": 4771,
      "Ġwpierdol": 4772,
      "Ġzbu": 4773,
      "ÅĤonie": 4774,
      "encja": 4775,
      "ÅĤaw": 4776,
      "tyn": 4777,
      "wiÅĤem": 4778,
      "Ġhoo": 4779,
      "ĠMon": 4780,
      "Ġlatach": 4781,
      "ĠPR": 4782,
      "ĠmiaÅĤeÅĽ": 4783,
      "Ġbitach": 4784,
      "Ġduszy": 4785,
      "Ġpozwo": 4786,
      "Byle": 4787,
      "Ġnapra": 4788,
      "ĠpamiÄĻÄĩ": 4789,
      "Dawno": 4790,
      "Ġmartw": 4791,
      "ĠciaÅĤo": 4792,
      "Ġzmart": 4793,
      "fony": 4794,
      "Ġber": 4795,
      "czko": 4796,
      "cznym": 4797,
      "Ġjedziemy": 4798,
      "ance": 4799,
      "lig": 4800,
      "Ġchwa": 4801,
      "Ġnisko": 4802,
      "Ġdziad": 4803,
      "dos": 4804,
      "PokaÅ¼": 4805,
      "Ġwio": 4806,
      "Ġtrasie": 4807,
      "lÄħdaÄĩ": 4808,
      "ĠpowÃ³d": 4809,
      "ĠNWJ": 4810,
      "ĠwiarÄĻ": 4811,
      "ĠsÅĤabo": 4812,
      "Ġpsycho": 4813,
      "Ġ10": 4814,
      "ĠnienawiÅĽÄĩ": 4815,
      "ĠsÅĤoÅĦca": 4816,
      "Ġhistoria": 4817,
      "Ġklasyk": 4818,
      "Ġsetki": 4819,
      "ĠdÅ¼ung": 4820,
      "bam": 4821,
      "dnÄħ": 4822,
      "sf": 4823,
      "wami": 4824,
      "xy": 4825,
      "zda": 4826,
      "Ġrzy": 4827,
      "Ġdwo": 4828,
      "Ġgan": 4829,
      "liÅĤem": 4830,
      "Ġucz": 4831,
      "Ġran": 4832,
      "rÃ³cz": 4833,
      "niaÅĤem": 4834,
      "Ġprosi": 4835,
      "ĠbawiÄĻ": 4836,
      "Ġbalet": 4837,
      "Ġweed": 4838,
      "ĠkupiÄĻ": 4839,
      "rzucam": 4840,
      "Ġprawa": 4841,
      "ĠpierdolÄħ": 4842,
      "ĠlataÄĩ": 4843,
      "Ġrodzina": 4844,
      "Ġzwykle": 4845,
      "Ġtypem": 4846,
      "WokÃ³ÅĤ": 4847,
      "Ġojca": 4848,
      "ciskam": 4849,
      "Szukam": 4850,
      "ast": 4851,
      "wany": 4852,
      "ÏĦ": 4853,
      "ĠÃ": 4854,
      "Ġswych": 4855,
      "Ġzbi": 4856,
      "Ġke": 4857,
      "Ġopi": 4858,
      "lii": 4859,
      "Ġzabiera": 4860,
      "enta": 4861,
      "omet": 4862,
      "ĠÅĽre": 4863,
      "ĠÅ¼yjÄħ": 4864,
      "Pozd": 4865,
      "czesz": 4866,
      "Nagle": 4867,
      "ĠSu": 4868,
      "Ġliry": 4869,
      "Ġele": 4870,
      "Ġhajsem": 4871,
      "skona": 4872,
      "MaÅĤo": 4873,
      "Ġpytasz": 4874,
      "Ġceleb": 4875,
      "ĠczekajÄħ": 4876,
      "Ġuwierz": 4877,
      "ĠjÄĻzyk": 4878,
      "ÅĽwiad": 4879,
      "EE": 4880,
      "PiÄĻk": 4881,
      "acie": 4882,
      "ft": 4883,
      "Îµ": 4884,
      "ÅĤki": 4885,
      "ĠmÄħ": 4886,
      "Ġzgi": 4887,
      "Ã³dÅº": 4888,
      "Ġpory": 4889,
      "ĠzajÄĻ": 4890,
      "Ġwyra": 4891,
      "ĠkoÅĽci": 4892,
      "Ġziomali": 4893,
      "Tych": 4894,
      "Ġtamtych": 4895,
      "styn": 4896,
      "Ġobro": 4897,
      "Ġdrob": 4898,
      "Ġrusza": 4899,
      "spek": 4900,
      "Ġpewne": 4901,
      "Ġhotel": 4902,
      "Ġszybciej": 4903,
      "Ġfull": 4904,
      "ĠkawaÅĤki": 4905,
      "Ġustach": 4906,
      "ĠmÄĻczy": 4907,
      "Ġgodzin": 4908,
      "Ġjasne": 4909,
      "PÅĤa": 4910,
      "PeÅĤ": 4911,
      "ik": 4912,
      "Ġsorry": 4913,
      "Ġprywa": 4914,
      "ĠmiÄĻk": 4915,
      "ĠzÅĤego": 4916,
      "dzaj": 4917,
      "ĠpoÅ¼y": 4918,
      "Ġgim": 4919,
      "ĠSa": 4920,
      "Ġrozpo": 4921,
      "ĠsÄħsiad": 4922,
      "siÄĻcy": 4923,
      "ĠfanÃ³w": 4924,
      "ĠumrzeÄĩ": 4925,
      "ĠgwiazdÄħ": 4926,
      "fonie": 4927,
      "Ġinteres": 4928,
      "bezpie": 4929,
      "ace": 4930,
      "gat": 4931,
      "muje": 4932,
      "zdu": 4933,
      "Ġniestety": 4934,
      "les": 4935,
      "anek": 4936,
      "zyka": 4937,
      "ĠgoÅĽÄĩ": 4938,
      "chodÅº": 4939,
      "Ġrozum": 4940,
      "ÅĽciem": 4941,
      "unku": 4942,
      "ĠHe": 4943,
      "Ġrusz": 4944,
      "ĠtaÅĦczy": 4945,
      "Stary": 4946,
      "Ġare": 4947,
      "Ġszczery": 4948,
      "ĠmusiaÅĤem": 4949,
      "Czekam": 4950,
      "Ġsezon": 4951,
      "wnÄħtrz": 4952,
      "car": 4953,
      "glÄħdam": 4954,
      "knÄĻ": 4955,
      "Ġdie": 4956,
      "rany": 4957,
      "Ġpozy": 4958,
      "Ġpoga": 4959,
      "liny": 4960,
      "day": 4961,
      "Ġprzepraszam": 4962,
      "Ġspu": 4963,
      "Jako": 4964,
      "ĠSÅĤoÅĦ": 4965,
      "Ġpalec": 4966,
      "piam": 4967,
      "Ġinnego": 4968,
      "ĠRich": 4969,
      "Wystarczy": 4970,
      "Kole": 4971,
      "ĠkolegÃ³w": 4972,
      "ĠkrzyÅ¼": 4973,
      "ÅĤowiek": 4974,
      "Ġpierwsza": 4975,
      "Ġdystans": 4976,
      "Ġgrube": 4977,
      "ĠbliÅ¼ej": 4978,
      "Ġulice": 4979,
      "Czasami": 4980,
      "ĠtaÅĦczÄħ": 4981,
      "ĠkrÃ³lem": 4982,
      "Ġshit": 4983,
      "siadam": 4984,
      "Ġbrudne": 4985,
      "resztÄħ": 4986,
      "Ġciemno": 4987,
      "Ġnauczy": 4988,
      "Ġpijany": 4989,
      "Ġprzerwy": 4990,
      "ĠprzeszÅĤoÅĽÄĩ": 4991,
      "ĠdziesiÄĻÄĩ": 4992,
      "Styl": 4993,
      "Î¹": 4994,
      "Ġzry": 4995,
      "Ġbum": 4996,
      "Ġomi": 4997,
      "ĠchatÄĻ": 4998,
      "ymy": 4999,
      "Ġczer": 5000,
      "ĠstÃ³ÅĤ": 5001,
      "ĠÅ¼ywo": 5002,
      "Pozdro": 5003,
      "Ġwitam": 5004,
      "ĠCD": 5005,
      "ĠproblemÃ³w": 5006,
      "Ġwymie": 5007,
      "ĠpomÃ³c": 5008,
      "ĠdostaÅĤ": 5009,
      "ĠfurÄħ": 5010,
      "Ġchmury": 5011,
      "ER": 5012,
      "Hajs": 5013,
      "NA": 5014,
      "uta": 5015,
      "Ġtal": 5016,
      "Ġkrze": 5017,
      "Ġkwia": 5018,
      "Ġmorze": 5019,
      "Ġodpo": 5020,
      "Ġodbiera": 5021,
      "ĠodkÄħd": 5022,
      "piesz": 5023,
      "ĠSto": 5024,
      "Ġgorz": 5025,
      "Ġzech": 5026,
      "ĠbaÄĩ": 5027,
      "CzÄĻ": 5028,
      "Ġnajbardziej": 5029,
      "KaÅ¼de": 5030,
      "Ġblokiem": 5031,
      "Å¼dÅ¼ÄĻ": 5032,
      "MiÅĤoÅĽÄĩ": 5033,
      "ĠzmieniÅĤ": 5034,
      "Ġdiler": 5035,
      "Ġplecy": 5036,
      "Ġjoint": 5037,
      "Ġnagrywam": 5038,
      "ĠwypÅĤa": 5039,
      "MyÅĽlisz": 5040,
      "The": 5041,
      "wro": 5042,
      "zz": 5043,
      "ĠwpÅĤy": 5044,
      "Ġwypada": 5045,
      "Ġkoja": 5046,
      "Ġszum": 5047,
      "uÅ¼y": 5048,
      "Ġlustro": 5049,
      "tety": 5050,
      "ĠSp": 5051,
      "Cztery": 5052,
      "Ġbutel": 5053,
      "Ġgranic": 5054,
      "Ġzdej": 5055,
      "eniu": 5056,
      "ĠgÃ³wna": 5057,
      "ĠkÅĤamstwo": 5058,
      "Ġskuma": 5059,
      "ĠPaluch": 5060,
      "Ġfuria": 5061,
      "ĠkÃ³ÅĤko": 5062,
      "16": 5063,
      "Ok": 5064,
      "Obo": 5065,
      "fil": 5066,
      "krÃ³": 5067,
      "lane": 5068,
      "siem": 5069,
      "ÅĤej": 5070,
      "Ġws": 5071,
      "ĠwÃ³z": 5072,
      "stÃ³w": 5073,
      "chÃ³w": 5074,
      "Ġnies": 5075,
      "ĠtonÄĻ": 5076,
      "Ġoce": 5077,
      "ĠkurwÄħ": 5078,
      "ĠÅĽwiad": 5079,
      "Ġkont": 5080,
      "rzymy": 5081,
      "ĠcaÅĤej": 5082,
      "Ġprzemo": 5083,
      "Ġwpadam": 5084,
      "Miej": 5085,
      "Zero": 5086,
      "ĠbranÅ¼y": 5087,
      "ĠpÅĤakaÄĩ": 5088,
      "ĠnaleÅ¼y": 5089,
      "Kar": 5090,
      "cajÄħ": 5091,
      "hm": 5092,
      "Î±": 5093,
      "Ġtram": 5094,
      "ema": 5095,
      "Ġglo": 5096,
      "jekt": 5097,
      "ciska": 5098,
      "Ġlegen": 5099,
      "ĠprzykÅĤad": 5100,
      "ĠBel": 5101,
      "ĠczasÃ³w": 5102,
      "Zapom": 5103,
      "Ġbab": 5104,
      "Ġkonsek": 5105,
      "ĠpuÅĽci": 5106,
      "Ġforsa": 5107,
      "skiego": 5108,
      "ĠdÅĤugie": 5109,
      "najmniej": 5110,
      "ĠziemiÄĻ": 5111,
      "Ġpozdrawiam": 5112,
      "Oczy": 5113,
      "PalÄĻ": 5114,
      "gli": 5115,
      "wek": 5116,
      "ĠcÃ³Å¼": 5117,
      "Ġdri": 5118,
      "ĠnaÄĩ": 5119,
      "ĠtoczÄĻ": 5120,
      "ĠzaÅĤo": 5121,
      "Ġczo": 5122,
      "Ġmain": 5123,
      "ĠniÐµ": 5124,
      "wij": 5125,
      "Ġboy": 5126,
      "dowaÄĩ": 5127,
      "stage": 5128,
      "ÅĤuma": 5129,
      "ĠmiesiÄħc": 5130,
      "ĠpaliÄĩ": 5131,
      "Ġcicho": 5132,
      "Ġsuka": 5133,
      "Ġzostaje": 5134,
      "Ġznaczenia": 5135,
      "ByÅĤ": 5136,
      "Ġwzro": 5137,
      "Ġtakiego": 5138,
      "Miasto": 5139,
      "Ġpizda": 5140,
      "Ġpiski": 5141,
      "Ġsiana": 5142,
      "Ġzgas": 5143,
      "ĠgodzinÄĻ": 5144,
      "Ġwakacje": 5145,
      "Ġrefren": 5146,
      "dar": 5147,
      "dnik": 5148,
      "ion": 5149,
      "Ã¡": 5150,
      "ĠsÄĻ": 5151,
      "Ġzdech": 5152,
      "Ġge": 5153,
      "Ġzauf": 5154,
      "Ġcom": 5155,
      "Ġmod": 5156,
      "rzyj": 5157,
      "ĠMÅĤody": 5158,
      "piÅĤ": 5159,
      "Ġkusi": 5160,
      "Ġhigh": 5161,
      "Ġzostaw": 5162,
      "Ġkarty": 5163,
      "Ġkieru": 5164,
      "Ġtakiej": 5165,
      "ĠdostaÅĤem": 5166,
      "ĠmusiaÅĤ": 5167,
      "Ġcharakter": 5168,
      "-,": 5169,
      "PÃ³Åº": 5170,
      "dko": 5171,
      "pka": 5172,
      "Ġtani": 5173,
      "ĠpociÄħg": 5174,
      "Ġpopatrz": 5175,
      "Ġgit": 5176,
      "lion": 5177,
      "ĠzaczÄĻ": 5178,
      "Ġkoz": 5179,
      "woÅĽÄĩ": 5180,
      "miesz": 5181,
      "kus": 5182,
      "Ġinnej": 5183,
      "mina": 5184,
      "Ġpozn": 5185,
      "Ġsyna": 5186,
      "Ġdrogie": 5187,
      "ĠdrogÄħ": 5188,
      "ĠJu": 5189,
      "Ġopowie": 5190,
      "Ġplay": 5191,
      "Ġnowo": 5192,
      "Ġdziewczyna": 5193,
      "Ġnormalnie": 5194,
      "Ġbejbe": 5195,
      "Ġmixtape": 5196,
      "ĠfaÅĤszy": 5197,
      "Gu": 5198,
      "UR": 5199,
      "duje": 5200,
      "kajÄħ": 5201,
      "skiem": 5202,
      "ĠrzÄĻ": 5203,
      "Ġps": 5204,
      "Ġcis": 5205,
      "chno": 5206,
      "rowaÄĩ": 5207,
      "Ġcokolwiek": 5208,
      "ĠÅ¼eÅĽ": 5209,
      "Ġmater": 5210,
      "asy": 5211,
      "Ġtest": 5212,
      "Ġmamo": 5213,
      "rÃ³g": 5214,
      "ĠdaÅĤem": 5215,
      "ĠWe": 5216,
      "szach": 5217,
      "land": 5218,
      "puÅĽci": 5219,
      "Ġspada": 5220,
      "Ġspacer": 5221,
      "ĠciÄĻÅ¼kie": 5222,
      "Ġszef": 5223,
      "ĠsÅĤuchasz": 5224,
      "Ġszczycie": 5225,
      "Ġsztuka": 5226,
      "ĠciaÅĤa": 5227,
      "Jedno": 5228,
      "Ġfacet": 5229,
      "Bardzo": 5230,
      "ĠWielkie": 5231,
      "LU": 5232,
      "don": 5233,
      "Ġniesie": 5234,
      "ĠnieÅºle": 5235,
      "Ġche": 5236,
      "Ġwyro": 5237,
      "ĠkochajÄħ": 5238,
      "Ġszal": 5239,
      "jazd": 5240,
      "wiajÄħ": 5241,
      "ĠMont": 5242,
      "tes": 5243,
      "ĠbÄĻb": 5244,
      "Ġpragnie": 5245,
      "Ġklatki": 5246,
      "ĠVo": 5247,
      "Ġpanny": 5248,
      "ĠczeÅĽÄĩ": 5249,
      "bliÅ¼": 5250,
      "Ġpozosta": 5251,
      "ĠumysÅĤ": 5252,
      "Ġlans": 5253,
      "',": 5254,
      "AÅ¼": 5255,
      "Nowe": 5256,
      "SB": 5257,
      "ala": 5258,
      "com": 5259,
      "lna": 5260,
      "mur": 5261,
      "Ġpsi": 5262,
      "Ġmono": 5263,
      "Ġbr": 5264,
      "ĠbÅĤo": 5265,
      "ĠbÅĤÄħ": 5266,
      "ener": 5267,
      "Ġkot": 5268,
      "ierÄĻ": 5269,
      "Å¼esz": 5270,
      "uma": 5271,
      "Ġtale": 5272,
      "Ġlinij": 5273,
      "Ġskrzyd": 5274,
      "pot": 5275,
      "ĠbaÅĦ": 5276,
      "Ġef": 5277,
      "anax": 5278,
      "ĠJoh": 5279,
      "ĠsÅĤuch": 5280,
      "ĠzostaÅĤ": 5281,
      "Ġoknem": 5282,
      "Ġkrzyczy": 5283,
      "Ġpierdolone": 5284,
      "Ġucieka": 5285,
      "Ġosiedla": 5286,
      "Ġkamie": 5287,
      "ĠÅĽwiÄĻta": 5288,
      "SÅĤuchaj": 5289,
      "Ġskil": 5290,
      "ĠÅĽnieg": 5291,
      "Ġswag": 5292,
      "Wsp": 5293,
      "jmy": 5294,
      "pp": 5295,
      "Ġtatu": 5296,
      "ĠprÃ³Å¼": 5297,
      "stek": 5298,
      "chÃ³d": 5299,
      "Ġnapierdala": 5300,
      "ĠposzedÅĤ": 5301,
      "Ġgas": 5302,
      "anej": 5303,
      "wagÄĻ": 5304,
      "ĠchÅĤÃ³d": 5305,
      "tata": 5306,
      "Ġmini": 5307,
      "Ġukra": 5308,
      "Ġszla": 5309,
      "czeÄĩ": 5310,
      "Å¼era": 5311,
      "Ġprocent": 5312,
      "ĠpiÅĤ": 5313,
      "Å¼yÅĤ": 5314,
      "ĠÅĤawce": 5315,
      "Znaj": 5316,
      "ĠdrugÄħ": 5317,
      "ĠnapÄĻ": 5318,
      "ĠpowtÃ³": 5319,
      "znaÅĦ": 5320,
      "ĠskoÅĦczÄĻ": 5321,
      "talnie": 5322,
      "Ġdumny": 5323,
      "ĠÅ¼aÅĤo": 5324,
      "ĠprÄĻdzej": 5325,
      "ĠdÅĤuÅ¼ej": 5326,
      "sÅĤÃ³w": 5327,
      "wnie": 5328,
      "Ġzadz": 5329,
      "cio": 5330,
      "ĠwyÅĽcig": 5331,
      "Ġodle": 5332,
      "ĠÅĽnia": 5333,
      "Ġspie": 5334,
      "ĠSe": 5335,
      "Ġskre": 5336,
      "aÅĤeÅĽ": 5337,
      "ĠKur": 5338,
      "Ġwoli": 5339,
      "Ġbalko": 5340,
      "Ġbagno": 5341,
      "ciÄħÄĩ": 5342,
      "Ġtamten": 5343,
      "Ġregu": 5344,
      "Ġognia": 5345,
      "Ġsynek": 5346,
      "Ġstarej": 5347,
      "ĠJo": 5348,
      "Ġstrachu": 5349,
      "ĠwalczÄĻ": 5350,
      "Ġdziwka": 5351,
      "Ġkolejne": 5352,
      "Ġmocniej": 5353,
      "Ġlecimy": 5354,
      "Ziomek": 5355,
      "ĠBaÅĤu": 5356,
      "ĠmÃ³zgu": 5357,
      "ĠochotÄĻ": 5358,
      "SprawdÅº": 5359,
      "Bit": 5360,
      "Pomy": 5361,
      "baj": 5362,
      "dno": 5363,
      "tania": 5364,
      "zje": 5365,
      "Ġwst": 5366,
      "Ġzni": 5367,
      "szli": 5368,
      "Ġbon": 5369,
      "Ġbat": 5370,
      "Ġjeba": 5371,
      "Ġfir": 5372,
      "ĠstÃ³": 5373,
      "piep": 5374,
      "chanie": 5375,
      "Ġzeszy": 5376,
      "ĠRad": 5377,
      "ĠstaÅĤ": 5378,
      "ĠÅĤaj": 5379,
      "ĠstojÄħ": 5380,
      "TaÅĦ": 5381,
      "ĠtrÃ³j": 5382,
      "Ġsumienie": 5383,
      "Ġkrwa": 5384,
      "ĠznajdÄĻ": 5385,
      "ĠzasnÄĻ": 5386,
      "Ġpsychi": 5387,
      "Ġkochanie": 5388,
      "ĠumrÄĻ": 5389,
      "Ġosiedle": 5390,
      "Ġemocji": 5391,
      "Ġdwudzie": 5392,
      "Ġdepres": 5393,
      "ĠÅĤaÅĦcuch": 5394,
      "sel": 5395,
      "ÃŃ": 5396,
      "Ġju": 5397,
      "szek": 5398,
      "Ġbad": 5399,
      "ÅĽnij": 5400,
      "wijam": 5401,
      "Ġfani": 5402,
      "Ġnot": 5403,
      "ĠstaÅĤe": 5404,
      "Ġhajsy": 5405,
      "ĠsiedzÄħ": 5406,
      "ĠEl": 5407,
      "Ġcieszy": 5408,
      "ooo": 5409,
      "Ġklubach": 5410,
      "rrr": 5411,
      "Ġcycki": 5412,
      "seudo": 5413,
      "ĠszkoÅĤy": 5414,
      "tens": 5415,
      "PamiÄĻtaj": 5416,
      "Ġpunkt": 5417,
      "ĠzdjÄĻcie": 5418,
      "ĠdupÄħ": 5419,
      "PieniÄħ": 5420,
      "ĠksiÄĻÅ¼y": 5421,
      "zwyczaj": 5422,
      "krÃ³tce": 5423,
      "AM": 5424,
      "Uh": 5425,
      "Uuu": 5426,
      "lone": 5427,
      "Äĺ": 5428,
      "ÅĤko": 5429,
      "ĠwciÄħg": 5430,
      "szem": 5431,
      "Ġoby": 5432,
      "Ġporu": 5433,
      "ĠpowaÅ¼nie": 5434,
      "koda": 5435,
      "Ġzacznie": 5436,
      "ĠzaÅĤat": 5437,
      "Ġaut": 5438,
      "ĠroÅĽnie": 5439,
      "ĠracjÄĻ": 5440,
      "ĠBra": 5441,
      "ĠmieliÅĽmy": 5442,
      "ĠwoÅĤa": 5443,
      "ĠRed": 5444,
      "Wyj": 5445,
      "ĠspoÅĤe": 5446,
      "Ġpiekle": 5447,
      "ĠzostaÅĤo": 5448,
      "Witam": 5449,
      "Ġpowtarz": 5450,
      "ĠpÅĤaczÄħ": 5451,
      "Ġroboty": 5452,
      "Ġufam": 5453,
      "Ġzasady": 5454,
      "MÃ³gÅĤbym": 5455,
      "LO": 5456,
      "ksu": 5457,
      "wz": 5458,
      "Ġzle": 5459,
      "Ġcake": 5460,
      "szkÄĻ": 5461,
      "Ġchu": 5462,
      "Ġdotyk": 5463,
      "Ġczasz": 5464,
      "Ġwybo": 5465,
      "Ġbyku": 5466,
      "biÅĤ": 5467,
      "Pora": 5468,
      "Jedziemy": 5469,
      "Chcieli": 5470,
      "ĠBi": 5471,
      "gaÅĤ": 5472,
      "Ġgod": 5473,
      "Ġziomale": 5474,
      "Ġey": 5475,
      "Ġnajpierw": 5476,
      "ĠrÄĻku": 5477,
      "ĠblokÃ³w": 5478,
      "ĠpotrzebujÄĻ": 5479,
      "Ġzmian": 5480,
      "Ġjazz": 5481,
      "Ġzysk": 5482,
      "Ġstrasznie": 5483,
      "Ġbeng": 5484,
      "ĠgÅĤÄĻbo": 5485,
      "20": 5486,
      "Uli": 5487,
      "bÃ³j": 5488,
      "gÅĤu": 5489,
      "tÄħd": 5490,
      "Ġplo": 5491,
      "Ġwczu": 5492,
      "ĠwkrÄĻ": 5493,
      "Ġbry": 5494,
      "Ġkres": 5495,
      "Ġpono": 5496,
      "ĠpojÄĻ": 5497,
      "Ġpopu": 5498,
      "ĠÅ¼art": 5499,
      "niak": 5500,
      "ĠczujÄħ": 5501,
      "Ġwyba": 5502,
      "bieg": 5503,
      "alnie": 5504,
      "Ġczyste": 5505,
      "ĠmiaÅĤbym": 5506,
      "maty": 5507,
      "ĠGru": 5508,
      "Ġrecep": 5509,
      "dÅºmi": 5510,
      "ĠZiem": 5511,
      "Ġulic": 5512,
      "ĠmogÅĤo": 5513,
      "Ġkoncertach": 5514,
      "Ġwbija": 5515,
      "Ġpolity": 5516,
      "Ġprawdziwe": 5517,
      "trzymaÄĩ": 5518,
      "ĠÅĽciem": 5519,
      "Ġpretens": 5520,
      "ĠwygraÄĩ": 5521,
      "ĠLouis": 5522,
      "Ġzabrak": 5523,
      "Ġportfe": 5524,
      "Ġczterech": 5525,
      "ĠksiÄħÅ¼": 5526,
      "DS": 5527,
      "die": 5528,
      "dek": 5529,
      "rej": 5530,
      "sÄħd": 5531,
      "tkÄħ": 5532,
      "Ð°": 5533,
      "Ġpam": 5534,
      "ĠcÃ³r": 5535,
      "stwem": 5536,
      "Ġniedzie": 5537,
      "Ġidziemy": 5538,
      "anka": 5539,
      "Ġdomy": 5540,
      "Ġagres": 5541,
      "Ġtypy": 5542,
      "ĠwyÅ¼": 5543,
      "Ġnogach": 5544,
      "Ġwisi": 5545,
      "Å¼eÅĦ": 5546,
      "Zap": 5547,
      "Ġtanie": 5548,
      "maz": 5549,
      "ĠgrajÄħ": 5550,
      "entÃ³w": 5551,
      "ĠHip": 5552,
      "hehe": 5553,
      "Ġpierdole": 5554,
      "Ġdziwi": 5555,
      "Ġzapis": 5556,
      "Ġdziwne": 5557,
      "ĠÅĽwieci": 5558,
      "Ġszybki": 5559,
      "Ġtwarze": 5560,
      "GdzieÅĽ": 5561,
      "Ġcyf": 5562,
      "Ġjedyny": 5563,
      "Ġnawij": 5564,
      "Ġdzieckiem": 5565,
      "ĠwÃ³dy": 5566,
      "lotne": 5567,
      "peÅĤni": 5568,
      "Ġgotowy": 5569,
      "ĠWarszawa": 5570,
      "Ġkwad": 5571,
      "Dziwko": 5572,
      "Ġrytm": 5573,
      "PÃ³Åºniej": 5574,
      "AA": 5575,
      "AN": 5576,
      "Gramy": 5577,
      "Hop": 5578,
      "Zbyt": 5579,
      "nny": 5580,
      "ua": 5581,
      "Ġzdzi": 5582,
      "rzas": 5583,
      "Ġnajebany": 5584,
      "Ġgest": 5585,
      "ĠmatkÄĻ": 5586,
      "Ġkoro": 5587,
      "Ġsztos": 5588,
      "Ġspi": 5589,
      "Ġlegal": 5590,
      "ĠBez": 5591,
      "zyn": 5592,
      "Ġprojekt": 5593,
      "ĠdobrÄħ": 5594,
      "szaÄĩ": 5595,
      "ĠnajwaÅ¼": 5596,
      "znaÄĩ": 5597,
      "ĠlÄħd": 5598,
      "Ġzmiany": 5599,
      "ĠRychu": 5600,
      "ĠwÃ³dka": 5601,
      "Prawdzi": 5602,
      "Ġalkohol": 5603,
      "Ġbutelki": 5604,
      "laka": 5605,
      "vis": 5606,
      "ych": 5607,
      "szu": 5608,
      "Ġbrzu": 5609,
      "Ã³ra": 5610,
      "Ġoba": 5611,
      "Ġgon": 5612,
      "ĠmaÅĤym": 5613,
      "Ġwycie": 5614,
      "Niejeden": 5615,
      "Ġnios": 5616,
      "ĠÅĽlady": 5617,
      "ĠMes": 5618,
      "ĠBM": 5619,
      "ĠludÅºmi": 5620,
      "ĠSi": 5621,
      "Å¼yÅĤem": 5622,
      "Czego": 5623,
      "entym": 5624,
      "moc": 5625,
      "Ġrej": 5626,
      "Ġcieka": 5627,
      "ĠmÅĤoda": 5628,
      "ĠmÅĤodzi": 5629,
      "ĠlÃ³d": 5630,
      "tion": 5631,
      "Ġszmato": 5632,
      "Ġurodzi": 5633,
      "Ġburdel": 5634,
      "Ġdramat": 5635,
      "ÅģapiÄĻ": 5636,
      "Ser": 5637,
      "cony": 5638,
      "pÃ³w": 5639,
      "wiÄĻc": 5640,
      "ĠtrzÄĻ": 5641,
      "Ġsiema": 5642,
      "Ġoff": 5643,
      "ĠoszczÄĻ": 5644,
      "ĠjeÅĽÄĩ": 5645,
      "anu": 5646,
      "liÅĽcie": 5647,
      "laÅĤeÅĽ": 5648,
      "Ġdole": 5649,
      "ĠÅ¼eg": 5650,
      "ĠwyszedÅĤ": 5651,
      "Ġszed": 5652,
      "Ġradio": 5653,
      "Ġodna": 5654,
      "Ġster": 5655,
      "kiety": 5656,
      "Ġdach": 5657,
      "ĠbiorÄħ": 5658,
      "WychodzÄĻ": 5659,
      "Ġdes": 5660,
      "Ġklatce": 5661,
      "Ġkolego": 5662,
      "Ġkomple": 5663,
      "ĠczÅĤowiekiem": 5664,
      "Ġnaszym": 5665,
      "Ġkoszmar": 5666,
      "Ġnerwy": 5667,
      "ĠBenz": 5668,
      "BiaÅĤas": 5669,
      "Serce": 5670,
      "caj": 5671,
      "dÅĤ": 5672,
      "Ġwad": 5673,
      "Ġbrzy": 5674,
      "ÅĽle": 5675,
      "ley": 5676,
      "Ġaw": 5677,
      "cimy": 5678,
      "Ġszary": 5679,
      "ĠÅ¼ywi": 5680,
      "wiasz": 5681,
      "ĠMu": 5682,
      "int": 5683,
      "ĠPeja": 5684,
      "Ġdobrym": 5685,
      "ĠgÅĤoÅĽniej": 5686,
      "Ġrela": 5687,
      "dziaty": 5688,
      "niejszy": 5689,
      "BÄĻdÄħ": 5690,
      "ĠczekaÄĩ": 5691,
      "Najlep": 5692,
      "ĠciÄħgnie": 5693,
      "Ġpunk": 5694,
      "ÅĤuÅ¼y": 5695,
      "Ġdeszczu": 5696,
      "ĠwÃ³dki": 5697,
      "Ostatni": 5698,
      "Ġcentrum": 5699,
      "Ġtrans": 5700,
      "Ġpowinie": 5701,
      "Ġkredyt": 5702,
      "ĠponoÄĩ": 5703,
      "MajÄħ": 5704,
      "fli": 5705,
      "iery": 5706,
      "Ġtat": 5707,
      "Ġdans": 5708,
      "Ġkaj": 5709,
      "rzesz": 5710,
      "niami": 5711,
      "Ġul": 5712,
      "Ġumia": 5713,
      "Ġszoku": 5714,
      "Ġfart": 5715,
      "wiaÅĤ": 5716,
      "gaÅ¼": 5717,
      "ĠmuszÄħ": 5718,
      "ĠPat": 5719,
      "Ġdobro": 5720,
      "Ġbezpie": 5721,
      "Ġepi": 5722,
      "Ġsercem": 5723,
      "ĠprawdÄħ": 5724,
      "ĠsiedzieÄĩ": 5725,
      "Ġbecel": 5726,
      "ĠsiÃ³d": 5727,
      "ĠwalczyÄĩ": 5728,
      "ĠszkoÅĤa": 5729,
      "ĠciÄĻÅ¼ki": 5730,
      "ĠtÅĤumie": 5731,
      "Ġosiedlu": 5732,
      "Ġchaty": 5733,
      "Ġrozkmin": 5734,
      "And": 5735,
      "dnych": 5736,
      "Ġmego": 5737,
      "Ġdora": 5738,
      "ĠdookoÅĤa": 5739,
      "Ġatak": 5740,
      "ciel": 5741,
      "Ġwygo": 5742,
      "toÅĽci": 5743,
      "nol": 5744,
      "rus": 5745,
      "mienia": 5746,
      "ĠTDF": 5747,
      "Ġlist": 5748,
      "Ġliter": 5749,
      "ĠsamotnoÅĽÄĩ": 5750,
      "Ġdzieciaka": 5751,
      "Ġ200": 5752,
      "ĠchciaÅĤby": 5753,
      "Ġwbij": 5754,
      "Ġskurwysyn": 5755,
      "Ġbuja": 5756,
      "ĠTwoich": 5757,
      "puszczam": 5758,
      "Ġodpowiedzi": 5759,
      "ĠrÃ³wno": 5760,
      "ĠzwykÅĤy": 5761,
      "ĠzjeÅĽÄĩ": 5762,
      "Ġimpre": 5763,
      "ĠrzÄħdzi": 5764,
      "DuÅ¼o": 5765,
      "Ġfollow": 5766,
      "Ġpodoba": 5767,
      "ChÅĤopaki": 5768,
      "Kilka": 5769,
      "skonale": 5770,
      "Gi": 5771,
      "Ho": 5772,
      "Si": 5773,
      "gane": 5774,
      "mon": 5775,
      "ĠtÅĤo": 5776,
      "amenty": 5777,
      "rajÄħ": 5778,
      "cznej": 5779,
      "niesie": 5780,
      "Ġidziesz": 5781,
      "waga": 5782,
      "lasz": 5783,
      "ĠchcieÄĩ": 5784,
      "ĠukÅĤa": 5785,
      "red": 5786,
      "noc": 5787,
      "ete": 5788,
      "allen": 5789,
      "Ġwita": 5790,
      "Ġlinie": 5791,
      "Wyjebane": 5792,
      "ĠtrasÄĻ": 5793,
      "szczam": 5794,
      "ÅĽciach": 5795,
      "Ġmajka": 5796,
      "Ġhistorii": 5797,
      "Ġszampan": 5798,
      "ĠwÃ³dkÄĻ": 5799,
      "Ġstreet": 5800,
      "Ġreklam": 5801,
      "ab": 5802,
      "dany": 5803,
      "mowy": 5804,
      "rwa": 5805,
      "ÄĻt": 5806,
      "Ġsma": 5807,
      "Ġjem": 5808,
      "szko": 5809,
      "stwie": 5810,
      "rara": 5811,
      "anko": 5812,
      "onu": 5813,
      "Ġleje": 5814,
      "ĠCie": 5815,
      "tera": 5816,
      "Ġpatent": 5817,
      "ĠFran": 5818,
      "Ġstaram": 5819,
      "gue": 5820,
      "Ġkarku": 5821,
      "Ġkomin": 5822,
      "Ġpasuje": 5823,
      "ĠgÃ³rze": 5824,
      "Ġtrzymaj": 5825,
      "pierdolÄĻ": 5826,
      "ĠÅĽmieci": 5827,
      "Ġplasti": 5828,
      "Ġplanach": 5829,
      "ĠÅĤatwiej": 5830,
      "Ġgwiazda": 5831,
      "Ġjointa": 5832,
      "ĠwziÄħÅĤ": 5833,
      "Ġdemon": 5834,
      "Ġstuff": 5835,
      "Ġoszuka": 5836,
      "ĠkÅĤopoty": 5837,
      "ĠInstagram": 5838,
      "Ġrzadko": 5839,
      "BÄħdÅº": 5840,
      "DÅĤu": 5841,
      "FK": 5842,
      "IdÅº": 5843,
      "Mar": 5844,
      "Ska": 5845,
      "nko": 5846,
      "pek": 5847,
      "ĠYo": 5848,
      "ĠzmÄĻ": 5849,
      "Ġzakaz": 5850,
      "Ġniejeden": 5851,
      "roÅĦ": 5852,
      "Ġzasy": 5853,
      "cina": 5854,
      "ĠszkÅĤo": 5855,
      "Chcemy": 5856,
      "Ġlej": 5857,
      "Ġprzychodzi": 5858,
      "Ġpiw": 5859,
      "Ġcisza": 5860,
      "Ġwoda": 5861,
      "Wybacz": 5862,
      "Ġmedia": 5863,
      "Ġstarczy": 5864,
      "ĠzÅĤoty": 5865,
      "Szcze": 5866,
      "Ġkoledzy": 5867,
      "Ġblizny": 5868,
      "ĠpamiÄĻtaj": 5869,
      "Ġpalce": 5870,
      "Ġszac": 5871,
      "Ġgadka": 5872,
      "Ġshake": 5873,
      "Ġzaczynam": 5874,
      "ĠpÃ³jdzie": 5875,
      "Ġspierdo": 5876,
      "ĠzdobyÄĩ": 5877,
      "ĠÅĤÄħczy": 5878,
      "Ġzapraszam": 5879,
      "ĠlÄĻk": 5880,
      "WaÅ¼ne": 5881,
      "Nim": 5882,
      "Siem": 5883,
      "fes": 5884,
      "nk": 5885,
      "tujÄĻ": 5886,
      "Ġden": 5887,
      "ĠdrÃ³g": 5888,
      "rzut": 5889,
      "Ġilu": 5890,
      "ĠgÅĤÃ³d": 5891,
      "anna": 5892,
      "lim": 5893,
      "ĠczoÅĤ": 5894,
      "taÅĤem": 5895,
      "ĠtysiÄħc": 5896,
      "Ġulubi": 5897,
      "Ġwierzysz": 5898,
      "Ġprzeszka": 5899,
      "Ġhor": 5900,
      "ÅºÅĦ": 5901,
      "ĠSta": 5902,
      "Ġrapera": 5903,
      "ĠPer": 5904,
      "ĠRos": 5905,
      "ĠstaÅĤem": 5906,
      "stop": 5907,
      "Ġbuch": 5908,
      "Ġbuta": 5909,
      "Mamo": 5910,
      "Ġkoncie": 5911,
      "ĠpÅĤycie": 5912,
      "Ġmorder": 5913,
      "ĠzÅĤota": 5914,
      "bec": 5915,
      "ĠdwadzieÅĽcia": 5916,
      "ĠkrÄĻcÄħ": 5917,
      "MiaÅĤ": 5918,
      "damn": 5919,
      "ĠzmieniÅĤo": 5920,
      "Ġznajomy": 5921,
      "Ġprem": 5922,
      "Ġszukaj": 5923,
      "ĠchÄĻci": 5924,
      "SÅĤyszÄĻ": 5925,
      "Ġzyski": 5926,
      "Ġtowarzy": 5927,
      "10": 5928,
      "?!)": 5929,
      "Trud": 5930,
      "Uwie": 5931,
      "dajÄħ": 5932,
      "pana": 5933,
      "Ġsel": 5934,
      "Ġzgu": 5935,
      "stream": 5936,
      "waÅĤeÅĽ": 5937,
      "Ġdoro": 5938,
      "onor": 5939,
      "Ġnigdzie": 5940,
      "ĠPar": 5941,
      "cky": 5942,
      "ahaha": 5943,
      "rzuÄĩ": 5944,
      "Ġbragga": 5945,
      "ĠzmieniÄĻ": 5946,
      "ĠbyÅĤoby": 5947,
      "Ġostro": 5948,
      "ĠÅĽwietnie": 5949,
      "onach": 5950,
      "Ġdomem": 5951,
      "ĠpokaÅ¼ÄĻ": 5952,
      "Ġczarna": 5953,
      "Ġumiesz": 5954,
      "MÃ³wili": 5955,
      "ĠmÄĻÅ¼": 5956,
      "Ġwielka": 5957,
      "ĠwiÄĻkszy": 5958,
      "ĠzÅĤapaÄĩ": 5959,
      "czekaj": 5960,
      "turÄĻ": 5961,
      "Ġszukasz": 5962,
      "ĠwziÄħÅĤem": 5963,
      "Piep": 5964,
      "ĠzazdroÅĽÄĩ": 5965,
      "Czeka": 5966,
      "Rano": 5967,
      "What": 5968,
      "rin": 5969,
      "ÑĤ": 5970,
      "ĠsnÃ³w": 5971,
      "Ġpaja": 5972,
      "wiamy": 5973,
      "Potrzeb": 5974,
      "szego": 5975,
      "ĠprzyszedÅĤ": 5976,
      "Ġpromo": 5977,
      "Ġcios": 5978,
      "ÅĽciu": 5979,
      "ĠrozsÄħd": 5980,
      "tus": 5981,
      "ĠÅĽwiatem": 5982,
      "Ġstawiam": 5983,
      "stotne": 5984,
      "Ġmeta": 5985,
      "Ġulica": 5986,
      "jebaÅĤo": 5987,
      "ĠkÅĤamstwa": 5988,
      "Ġjazdy": 5989,
      "Razem": 5990,
      "ĠpoczÄħtek": 5991,
      "Wielkie": 5992,
      "Ġprzemoc": 5993,
      "Kum": 5994,
      "PÃ³ÅĤ": 5995,
      "nnie": 5996,
      "wca": 5997,
      "Ġmrok": 5998,
      "Ġbak": 5999,
      "Ġniewy": 6000,
      "lera": 6001,
      "Ġchi": 6002,
      "Ġdoty": 6003,
      "Ġodnaj": 6004,
      "ĠBy": 6005,
      "ĠPrze": 6006,
      "Ġbilet": 6007,
      "Ġziome": 6008,
      "ĠWro": 6009,
      "Ġelo": 6010,
      "Ġspodnie": 6011,
      "ĠchciaÅĤo": 6012,
      "ĠJor": 6013,
      "ĠEuro": 6014,
      "ĠNe": 6015,
      "ĠsÅĤyszeÄĩ": 6016,
      "Stra": 6017,
      "ĠszaleÅĦ": 6018,
      "Ġmartwi": 6019,
      "ĠwejdÄĻ": 6020,
      "Ġprzyjem": 6021,
      "ĠwartoÅĽci": 6022,
      "Ġzjadam": 6023,
      "ĠnagraÄĩ": 6024,
      "ĠchÄĻtnie": 6025,
      "Ġzielone": 6026,
      "ZakÅĤadam": 6027,
      "Ġpowietrzu": 6028,
      "ĠdÅ¼ungli": 6029,
      "BW": 6030,
      "DZ": 6031,
      "MiÄĻdzy": 6032,
      "giÄĻ": 6033,
      "gÅĤem": 6034,
      "wny": 6035,
      "Ãĵ": 6036,
      "ĠrÃ³": 6037,
      "Ġsym": 6038,
      "Ġdamy": 6039,
      "Ġnajeb": 6040,
      "Ġodzy": 6041,
      "Ġpowin": 6042,
      "anki": 6043,
      "ĠÅ¼onÄĻ": 6044,
      "niki": 6045,
      "Ġmodli": 6046,
      "ĠwyjÄħ": 6047,
      "rys": 6048,
      "towaÅĤ": 6049,
      "Ġdzwo": 6050,
      "Ġros": 6051,
      "ĠsprzÄĻ": 6052,
      "ĠdaÅĤa": 6053,
      "Ġczysta": 6054,
      "ĠliczÄħ": 6055,
      "Ġsklep": 6056,
      "ĠWis": 6057,
      "dÅºmy": 6058,
      "Ġbutach": 6059,
      "Taka": 6060,
      "ChodzÄĻ": 6061,
      "ĠpyÅĤ": 6062,
      "ĠzÅĤoÅĽÄĩ": 6063,
      "Szuka": 6064,
      "Ġklubu": 6065,
      "ĠkrÄĻÄĩ": 6066,
      "rrrt": 6067,
      "prost": 6068,
      "ĠczÄĻÅĽÄĩ": 6069,
      "Ġdajesz": 6070,
      "ĠpomysÅĤ": 6071,
      "Ġzmar": 6072,
      "ĠpengÄĻ": 6073,
      "Ġdisco": 6074,
      "ĠwojnÄĻ": 6075,
      "logia": 6076,
      "Ġbetonu": 6077,
      "ĠosiÄħg": 6078,
      "CiÄħ": 6079,
      "Dam": 6080,
      "Lat": 6081,
      "Wkur": 6082,
      "Wbijam": 6083,
      "wkach": 6084,
      "ĠrzÄħd": 6085,
      "Ġnut": 6086,
      "ĠzÅĤych": 6087,
      "Ġkier": 6088,
      "Ġpok": 6089,
      "anem": 6090,
      "Ġzata": 6091,
      "Ġdoda": 6092,
      "ĠbyliÅĽmy": 6093,
      "Ġprzeko": 6094,
      "Ġhum": 6095,
      "Ġstand": 6096,
      "ĠÅ¼yczÄĻ": 6097,
      "Ġchoro": 6098,
      "dera": 6099,
      "sik": 6100,
      "ĠKÄĻ": 6101,
      "Ġjednego": 6102,
      "Czu": 6103,
      "ĠpÅĤynÄħ": 6104,
      "Ġrun": 6105,
      "resh": 6106,
      "Ġryja": 6107,
      "Ġopcji": 6108,
      "ĠÅĽwieÅ¼y": 6109,
      "ĠtaÅĦczyÄĩ": 6110,
      "fera": 6111,
      "ĠchciaÅĤbyÅĽ": 6112,
      "Samo": 6113,
      "Ġstudi": 6114,
      "Ġofia": 6115,
      "Ġznikam": 6116,
      "ĠnienawidzÄĻ": 6117,
      "Ġpunch": 6118,
      "ĠwÅĤaÅĽci": 6119,
      "ĠwjeÅ¼dÅ¼am": 6120,
      "ĠprÃ³bo": 6121,
      "Ġhotelu": 6122,
      "Am": 6123,
      "Au": 6124,
      "Sorry": 6125,
      "her": 6126,
      "nur": 6127,
      "Ġ?": 6128,
      "Ġtajem": 6129,
      "Ġswym": 6130,
      "Ġmer": 6131,
      "szÅĤy": 6132,
      "ral": 6133,
      "ÅĤagan": 6134,
      "naÅĽcie": 6135,
      "Ġmoty": 6136,
      "Ġtytu": 6137,
      "Ġut": 6138,
      "ĠkoÅĤ": 6139,
      "lut": 6140,
      "ĠÅĽni": 6141,
      "ĠÅĽciÄħg": 6142,
      "Ġlevel": 6143,
      "ĠMiel": 6144,
      "Ġprzyje": 6145,
      "Ġprosta": 6146,
      "Ġlinii": 6147,
      "ĠWal": 6148,
      "zach": 6149,
      "Ġobiad": 6150,
      "spekt": 6151,
      "Ġsumienia": 6152,
      "ĠrzuciÄĩ": 6153,
      "Ġgadki": 6154,
      "Ġnumery": 6155,
      "uld": 6156,
      "ĠwartoÅĽÄĩ": 6157,
      "Ġjazda": 6158,
      "Ġtwardy": 6159,
      "ZrobiÅĤem": 6160,
      "ĠÅĤÃ³Å¼ku": 6161,
      "Ġochoty": 6162,
      "ĠMontana": 6163,
      "wne": 6164,
      "xa": 6165,
      "zjÄĻ": 6166,
      "Ġ7": 6167,
      "Ġ8": 6168,
      "ĠwstaÄĩ": 6169,
      "Ġzde": 6170,
      "Ã³wa": 6171,
      "Ġowo": 6172,
      "ĠtysiÄĻcy": 6173,
      "lus": 6174,
      "Ġfake": 6175,
      "wiesz": 6176,
      "ĠprzeszÅĤo": 6177,
      "jaÄĩ": 6178,
      "ĠrozjebaÄĩ": 6179,
      "gina": 6180,
      "Ġinna": 6181,
      "ĠbudzÄĻ": 6182,
      "Ġsex": 6183,
      "bus": 6184,
      "ĠVan": 6185,
      "Ġpalcem": 6186,
      "Ġkump": 6187,
      "ĠJacek": 6188,
      "ĠobojÄĻ": 6189,
      "Dobry": 6190,
      "MieliÅĽmy": 6191,
      "Ġogarnia": 6192,
      "ĠTwoja": 6193,
      "ĠpomaÅĤu": 6194,
      "ĠzaczÄħÄĩ": 6195,
      "dziesiÄħt": 6196,
      "Ġkwestia": 6197,
      "ĠporzÄħdku": 6198,
      "Brud": 6199,
      "cone": 6200,
      "demu": 6201,
      "glÄĻ": 6202,
      "hej": 6203,
      "hetto": 6204,
      "zdy": 6205,
      "ĠnÃ³g": 6206,
      "Ġsort": 6207,
      "rani": 6208,
      "ĠpoÅĽrÃ³d": 6209,
      "arko": 6210,
      "kaÅĤ": 6211,
      "karz": 6212,
      "owam": 6213,
      "ejdzie": 6214,
      "Ġwyz": 6215,
      "ĠuzaleÅ¼": 6216,
      "reb": 6217,
      "Ġprzesta": 6218,
      "ĠbojÄħ": 6219,
      "Ġstaje": 6220,
      "Ġstrza": 6221,
      "Nau": 6222,
      "Ġlook": 6223,
      "puÅĽÄĩ": 6224,
      "ĠskoÅĦczyÅĤ": 6225,
      "siada": 6226,
      "Ġcele": 6227,
      "Ġmanda": 6228,
      "Ġbajki": 6229,
      "ĠdiabeÅĤ": 6230,
      "Ġlamus": 6231,
      "Ġbasen": 6232,
      "Ġniepotrzeb": 6233,
      "ĠmaÅĤolat": 6234,
      "Ġwanna": 6235,
      "ĠwytwÃ³r": 6236,
      "ĠpoÅĽwiÄĻ": 6237,
      "Ġkontakt": 6238,
      "Ġtygodni": 6239,
      "Ġfraje": 6240,
      "Ġcelebry": 6241,
      "Okej": 6242,
      "GÅĤu": 6243,
      "Gad": 6244,
      "Oj": 6245,
      "TÄĻ": 6246,
      "WiÄĻk": 6247,
      "cku": 6248,
      "mut": 6249,
      "Ġpana": 6250,
      "stkÄĻ": 6251,
      "Ġnaro": 6252,
      "Ġnatura": 6253,
      "Ġnieje": 6254,
      "Ġnieraz": 6255,
      "Ġisk": 6256,
      "Ġmijam": 6257,
      "Ġmarzy": 6258,
      "wione": 6259,
      "Ġfame": 6260,
      "Ġwieku": 6261,
      "wiet": 6262,
      "czyk": 6263,
      "ĠÅ¼yjemy": 6264,
      "ÅĤuÅĤu": 6265,
      "caÄĩ": 6266,
      "Nagry": 6267,
      "Zaczy": 6268,
      "ump": 6269,
      "ĠgÅĤosem": 6270,
      "Ġbezsen": 6271,
      "Ġeg": 6272,
      "Ġevery": 6273,
      "Åļmie": 6274,
      "ĠpewnoÅĽÄĩ": 6275,
      "Przyj": 6276,
      "ĠsÅĤyszaÅĤ": 6277,
      "ĠtrzymaÄĩ": 6278,
      "pierdoli": 6279,
      "ĠÅĽmiech": 6280,
      "Ġkroki": 6281,
      "Ġnowym": 6282,
      "ĠkÅĤamstw": 6283,
      "ĠzasnÄħÄĩ": 6284,
      "Ġsmutny": 6285,
      "Ġpunche": 6286,
      "ĠzmianÄĻ": 6287,
      "ĠWarszawie": 6288,
      "Ġpiach": 6289,
      "ĠzaleÅ¼y": 6290,
      "ĠwybÃ³r": 6291,
      "Ġzastana": 6292,
      "allenge": 6293,
      "Kim": 6294,
      "OM": 6295,
      "Pali": 6296,
      "Se": 6297,
      "Tek": 6298,
      "Zim": 6299,
      "dÅĤem": 6300,
      "ine": 6301,
      "Ġtk": 6302,
      "Ġwste": 6303,
      "Ġmake": 6304,
      "ambo": 6305,
      "ranie": 6306,
      "arcie": 6307,
      "nat": 6308,
      "Ġcon": 6309,
      "NiektÃ³": 6310,
      "Ġfali": 6311,
      "wienie": 6312,
      "lor": 6313,
      "lowaÄĩ": 6314,
      "Ġwios": 6315,
      "Ġkaf": 6316,
      "ĠMerce": 6317,
      "ĠBOR": 6318,
      "kien": 6319,
      "ĠpodrÃ³Å¼": 6320,
      "Ġpodstaw": 6321,
      "siÅĤ": 6322,
      "Ġlimi": 6323,
      "Ġinstyn": 6324,
      "miu": 6325,
      "saÄĩ": 6326,
      "Wiele": 6327,
      "Ġpowro": 6328,
      "Ġkomen": 6329,
      "Ġnaszej": 6330,
      "ĠzamknÄħÄĩ": 6331,
      "Ġaku": 6332,
      "Ġnazwi": 6333,
      "Ġjointy": 6334,
      "ĠcenÄĻ": 6335,
      "Ġpuszczam": 6336,
      "ĠzaczÄħÅĤem": 6337,
      "Ġidol": 6338,
      "Ġdown": 6339,
      "ĠĠĠĠĠĠĠĠĠĠĠĠĠĠĠĠ": 6340,
      "Ġpotrzeba": 6341,
      "PiÄĻÄĩ": 6342,
      "Kup": 6343,
      "aler": 6344,
      "gani": 6345,
      "iÅĤem": 6346,
      "owaÅĤ": 6347,
      "pon": 6348,
      "Ġpseudo": 6349,
      "Ġcar": 6350,
      "Å¼li": 6351,
      "Ġkmi": 6352,
      "Ġniebezpie": 6353,
      "czone": 6354,
      "Ġpogar": 6355,
      "Ġgn": 6356,
      "anda": 6357,
      "Ġzapierdala": 6358,
      "Ġfal": 6359,
      "Ġbogiem": 6360,
      "Ġsamych": 6361,
      "gasz": 6362,
      "ĠdaÅĤo": 6363,
      "Ġproch": 6364,
      "ĠchodzÄħ": 6365,
      "Ġmuza": 6366,
      "Ġcip": 6367,
      "Zabi": 6368,
      "Ġwozi": 6369,
      "ille": 6370,
      "Ġpeda": 6371,
      "sieÅĦ": 6372,
      "ĠchciaÅĤeÅĽ": 6373,
      "ĠPoznaÅĦ": 6374,
      "ĠpowrÃ³t": 6375,
      "ĠpiÄĻÅĽci": 6376,
      "Ġostatnia": 6377,
      "ChciaÅĤbyÅĽ": 6378,
      "Raczej": 6379,
      "ĠkÅĤamie": 6380,
      "Ġfeat": 6381,
      "ĠpÅĤonÄħ": 6382,
      "ĠzdjÄĻÄĩ": 6383,
      "Ġwojna": 6384,
      "Ġzabawa": 6385,
      "SÅĤoÅĦ": 6386,
      "Ġgardle": 6387,
      "ĠzatrzymaÄĩ": 6388,
      "ĠnastÄĻpny": 6389,
      "Ġmomencie": 6390,
      "ub": 6391,
      "wrÃ³": 6392,
      "zki": 6393,
      "ĠOd": 6394,
      "ĠYou": 6395,
      "ĠzwÄħ": 6396,
      "Ġnast": 6397,
      "Ġpocho": 6398,
      "Ġjedziesz": 6399,
      "Ġgrzy": 6400,
      "ĠgÃ³r": 6401,
      "ĠdoÅĽwiad": 6402,
      "jebie": 6403,
      "cin": 6404,
      "Ġkasz": 6405,
      "Ġprzykro": 6406,
      "kiej": 6407,
      "ĠgoniÄħ": 6408,
      "Ġziomem": 6409,
      "perzy": 6410,
      "Ġbratem": 6411,
      "Ġpewny": 6412,
      "Szkoda": 6413,
      "rzÄħc": 6414,
      "ĠBogu": 6415,
      "ĠchÅĤopaku": 6416,
      "ĠMicha": 6417,
      "ĠstanÄħ": 6418,
      "Ġostatnio": 6419,
      "ĠÅĽwiÄĻty": 6420,
      "wÃ³rz": 6421,
      "Ġczaisz": 6422,
      "Obok": 6423,
      "Zat": 6424,
      "lla": 6425,
      "nujÄĻ": 6426,
      "ĠsÄħd": 6427,
      "Ġsiem": 6428,
      "ĠwÅĤÄħcz": 6429,
      "Ġjust": 6430,
      "nieÅĽ": 6431,
      "ĠpoÅ¼": 6432,
      "ĠÅ¼oÅĤ": 6433,
      "niku": 6434,
      "Ġbohat": 6435,
      "jadÄĻ": 6436,
      "boy": 6437,
      "uter": 6438,
      "ĠinnÄħ": 6439,
      "Ġkomer": 6440,
      "ĠpiÄĻtna": 6441,
      "Ġgrunt": 6442,
      "Ġkluby": 6443,
      "ĠsprawÄĻ": 6444,
      "Strze": 6445,
      "ĠkrÃ³t": 6446,
      "Panie": 6447,
      "Ġgodziny": 6448,
      "Lato": 6449,
      "ĠÅĽpiewam": 6450,
      "Ġbackstage": 6451,
      "Rzucam": 6452,
      "Ġlokal": 6453,
      "ĠsekundÄĻ": 6454,
      "ĠjakimÅĽ": 6455,
      "Ġkonsekwen": 6456,
      "Bon": 6457,
      "Sprze": 6458,
      "ety": 6459,
      "gas": 6460,
      "onie": 6461,
      "wani": 6462,
      "znÄĻ": 6463,
      "Ġsna": 6464,
      "cznÄħ": 6465,
      "Ġover": 6466,
      "Ġszczu": 6467,
      "Ġprzesa": 6468,
      "Ġbois": 6469,
      "Ġdali": 6470,
      "deÅĤ": 6471,
      "ĠPla": 6472,
      "ĠPio": 6473,
      "Ġinsta": 6474,
      "Ġkonkur": 6475,
      "NoszÄĻ": 6476,
      "Tele": 6477,
      "Przepraszam": 6478,
      "Åģat": 6479,
      "ĠÅ¼adnego": 6480,
      "ĠoprÃ³cz": 6481,
      "ĠwalkÄĻ": 6482,
      "Ġthing": 6483,
      "ĠwspÃ³ÅĤ": 6484,
      "Ġnowej": 6485,
      "ĠÄĩpa": 6486,
      "ĠumarÅĤ": 6487,
      "peÅĤnie": 6488,
      "Ġsmakuje": 6489,
      "Ġbomby": 6490,
      "ĠpieprzyÄĩ": 6491,
      "Ġwariat": 6492,
      "Prawda": 6493,
      "Ġzgadza": 6494,
      "Ġspecja": 6495,
      "ĠzioÅĤo": 6496,
      "ĠÅĽredni": 6497,
      "Ġmainstream": 6498,
      "Ġwzrokiem": 6499,
      "Stu": 6500,
      "Wol": 6501,
      "fÄĻ": 6502,
      "ugh": 6503,
      "Ġmro": 6504,
      "Ġdrip": 6505,
      "Ġbek": 6506,
      "ĠgrÃ³b": 6507,
      "ĠÅ¼ona": 6508,
      "Ġmic": 6509,
      "rea": 6510,
      "ceÅĦ": 6511,
      "lowa": 6512,
      "ĠjapÄĻ": 6513,
      "Ġprzypa": 6514,
      "Ġtymi": 6515,
      "Ġpodpis": 6516,
      "ĠPut": 6517,
      "Ġrozjeb": 6518,
      "ĠbiÄĩ": 6519,
      "Ġchujem": 6520,
      "Ġbudy": 6521,
      "ĠÅĤawki": 6522,
      "Ġpierdolisz": 6523,
      "ĠkoÅĦczÄĻ": 6524,
      "ĠchwilÄħ": 6525,
      "ĠEj": 6526,
      "Ġkarmi": 6527,
      "ĠVer": 6528,
      "Ġkick": 6529,
      "ĠpokaÅ¼e": 6530,
      "Zoba": 6531,
      "ĠmartwiÄĩ": 6532,
      "noÅĽciÄħ": 6533,
      "Ġszanse": 6534,
      "ĠstanÄĻ": 6535,
      "ĠpoznaÅĤem": 6536,
      "Ġdostaniesz": 6537,
      "Ġfartem": 6538,
      "Ġpodziemia": 6539,
      "Lubisz": 6540,
      "ĠwyrwaÄĩ": 6541,
      "NienawidzÄĻ": 6542,
      "Ġelem": 6543,
      "ĠzmartwieÅĦ": 6544,
      "Pozdrawiam": 6545,
      "Daje": 6546,
      "HA": 6547,
      "glÄħd": 6548,
      "Ġsali": 6549,
      "Ġzza": 6550,
      "Ġozna": 6551,
      "tali": 6552,
      "ĠtyÅĤ": 6553,
      "Ġszat": 6554,
      "Ġrand": 6555,
      "Ġradi": 6556,
      "ĠprzekrÄĻ": 6557,
      "oma": 6558,
      "Ġham": 6559,
      "Ġhand": 6560,
      "Ġznany": 6561,
      "utu": 6562,
      "turze": 6563,
      "ĠAle": 6564,
      "ĠDu": 6565,
      "ĠmÃ³wiÅĤa": 6566,
      "ĠÅĤakÃ³w": 6567,
      "OdkÄħd": 6568,
      "rakt": 6569,
      "graÄĩ": 6570,
      "rii": 6571,
      "ĠpotÄĻ": 6572,
      "Ġzapro": 6573,
      "Ġkariera": 6574,
      "Ġthey": 6575,
      "Lub": 6576,
      "Ġpowraca": 6577,
      "ĠpÅĤacze": 6578,
      "Ġklucz": 6579,
      "ĠpeÅĤno": 6580,
      "ĠdziaÅĤo": 6581,
      "Ġpizdu": 6582,
      "ĠpisaÅĤem": 6583,
      "Ġplane": 6584,
      "Ġdobrego": 6585,
      "Ġszczeg": 6586,
      "Ġparano": 6587,
      "ĠzaczÄħÅĤ": 6588,
      "ÅĽwiadom": 6589,
      "Ġdekady": 6590,
      "uais": 6591,
      "Krzy": 6592,
      "PÄĻ": 6593,
      "Sku": 6594,
      "ey": 6595,
      "knÄħÄĩ": 6596,
      "ĠÏ": 6597,
      "Ġsquad": 6598,
      "Ġsentym": 6599,
      "chana": 6600,
      "Ġnagram": 6601,
      "Ġpoj": 6602,
      "onej": 6603,
      "onego": 6604,
      "Ġwybiera": 6605,
      "Ġbye": 6606,
      "Ġodpalam": 6607,
      "iss": 6608,
      "ĠSan": 6609,
      "Ġsobo": 6610,
      "ĠpodrÃ³": 6611,
      "Ġlive": 6612,
      "Ġziomka": 6613,
      "Å¼ysz": 6614,
      "ĠbagaÅ¼": 6615,
      "ĠGa": 6616,
      "ĠGdzie": 6617,
      "Codzien": 6618,
      "ĠÅĤadnie": 6619,
      "Ġseria": 6620,
      "pety": 6621,
      "Ġsypie": 6622,
      "ĠJord": 6623,
      "Ġsieci": 6624,
      "Åļwie": 6625,
      "ĠkolejnÄħ": 6626,
      "Ġhoryz": 6627,
      "ĠzakÅĤadam": 6628,
      "Ġostatniej": 6629,
      "ChciaÅĤeÅĽ": 6630,
      "Ġfajny": 6631,
      "Prosto": 6632,
      "Ġsynku": 6633,
      "Ġpropsy": 6634,
      "ĠdiabÅĤa": 6635,
      "CzÄĻsto": 6636,
      "Ben": 6637,
      "BÃ³g": 6638,
      "DajÄĻ": 6639,
      "dent": 6640,
      "Ġwhis": 6641,
      "ĠjÐµ": 6642,
      "Ġcuk": 6643,
      "Ġzasko": 6644,
      "Ġmode": 6645,
      "owania": 6646,
      "Ġmig": 6647,
      "Ġule": 6648,
      "Ġfach": 6649,
      "Ġwiedz": 6650,
      "Ġteat": 6651,
      "Ġboi": 6652,
      "ĠÅ¼yÅĤem": 6653,
      "alne": 6654,
      "Ġnosem": 6655,
      "ĠnosiÄĩ": 6656,
      "Ġnogami": 6657,
      "Ġkab": 6658,
      "caÅĤem": 6659,
      "ĠbijÄħ": 6660,
      "ĠgÅĤodny": 6661,
      "Dop": 6662,
      "ĠjesteÅĽcie": 6663,
      "Ġstoli": 6664,
      "GdybyÅĽ": 6665,
      "dzeÅĦ": 6666,
      "ĠtrwaÄĩ": 6667,
      "Ġmuzyce": 6668,
      "Ġblat": 6669,
      "Ġsekret": 6670,
      "Zamie": 6671,
      "ĠrÃ³Å¼ni": 6672,
      "Ġtrudne": 6673,
      "MieÄĩ": 6674,
      "Ġkamer": 6675,
      "Ġfarta": 6676,
      "Ġpodziemie": 6677,
      "Ġbujam": 6678,
      "ĠpatrzÄħc": 6679,
      "Ġwieczorem": 6680,
      "Ġstresu": 6681,
      "Ġpogrzeb": 6682,
      "Ġszansa": 6683,
      "ĠuczuÄĩ": 6684,
      "Czekaj": 6685,
      "Ġshot": 6686,
      "ĠprzyszÅĤoÅĽci": 6687,
      "ĠkieszeÅĦ": 6688,
      "Ġpliki": 6689,
      "URWA": 6690,
      "DSM": 6691,
      "Ġakurat": 6692,
      "Sa": 6693,
      "anie": 6694,
      "wane": 6695,
      "zel": 6696,
      "Ġpsa": 6697,
      "Ġzba": 6698,
      "Å¼u": 6699,
      "Ġbzdu": 6700,
      "rabia": 6701,
      "Ġnade": 6702,
      "Ġnieo": 6703,
      "cznik": 6704,
      "ĠpostÄĻp": 6705,
      "Ġimi": 6706,
      "Ġgier": 6707,
      "anÃ³w": 6708,
      "ĠÅ¼u": 6709,
      "erem": 6710,
      "cinam": 6711,
      "Ġmoda": 6712,
      "Ġkok": 6713,
      "Ġkopie": 6714,
      "Ġodczu": 6715,
      "Ġspis": 6716,
      "ise": 6717,
      "ĠThe": 6718,
      "rÄĻt": 6719,
      "Ġpion": 6720,
      "siu": 6721,
      "nÄĻÅĤa": 6722,
      "Ġrozpierdol": 6723,
      "Ġwoka": 6724,
      "Ġduch": 6725,
      "Ġya": 6726,
      "Ġbud": 6727,
      "ĠlodÃ³w": 6728,
      "Ġgrasz": 6729,
      "ĠnajwyÅ¼": 6730,
      "Ġpraco": 6731,
      "Ġpozwala": 6732,
      "ĠOn": 6733,
      "Ġzrobimy": 6734,
      "Ġbanku": 6735,
      "ĠchoÄĩby": 6736,
      "Ġopis": 6737,
      "ĠsÅĤyszaÅĤem": 6738,
      "?),": 6739,
      "ĠczÅĤowieka": 6740,
      "ĠwÅĤasnÄħ": 6741,
      "ĠprzejÅĽÄĩ": 6742,
      "ĠbÄĻdÄħc": 6743,
      "Ġplecami": 6744,
      "Ġreszty": 6745,
      "Ġpoznasz": 6746,
      "Ġspadnie": 6747,
      "ĠzwierzÄĻ": 6748,
      "Ġcierpie": 6749,
      "Ġnarkoty": 6750,
      "Trzymam": 6751,
      "Filip": 6752,
      "Otwie": 6753,
      "ĠstÃ³p": 6754,
      "ĠzwÄħt": 6755,
      "Obie": 6756,
      "camy": 6757,
      "jj": 6758,
      "miÄĻ": 6759,
      "xi": 6760,
      "ĠÃ³": 6761,
      "Ġbam": 6762,
      "Ġokiem": 6763,
      "wat": 6764,
      "koÅĤo": 6765,
      "Ġdoskonale": 6766,
      "eny": 6767,
      "erÃ³w": 6768,
      "Ġcome": 6769,
      "owiÄħ": 6770,
      "Ġminie": 6771,
      "Ġulotne": 6772,
      "tonie": 6773,
      "ness": 6774,
      "Ġodpa": 6775,
      "Ġhust": 6776,
      "ĠspiÄĻ": 6777,
      "Ġlava": 6778,
      "BoÅ¼e": 6779,
      "Ġtable": 6780,
      "Ġzioma": 6781,
      "ĠGra": 6782,
      "Ġeuro": 6783,
      "Ġkure": 6784,
      "Ġzamia": 6785,
      "Ġprag": 6786,
      "WierzÄĻ": 6787,
      "ĠopÅĤa": 6788,
      "Ġdywan": 6789,
      "rzaÅĤem": 6790,
      "ĠgÅĤupoty": 6791,
      "ĠwyjÅĽcia": 6792,
      "Ġwszystkiego": 6793,
      "Ġmartwy": 6794,
      "Ġzapomnij": 6795,
      "Ġprzejdzie": 6796,
      "ĠwiÄĻksze": 6797,
      "Pyta": 6798,
      "ĠszukaÄĩ": 6799,
      "Ġlamu": 6800,
      "SÅĤowa": 6801,
      "Ġprzemie": 6802,
      "Szybko": 6803,
      "Ġdrobne": 6804,
      "15": 6805,
      "KrÃ³": 6806,
      "Ne": 6807,
      "Psy": 6808,
      "lany": 6809,
      "Î½": 6810,
      "Ñģ": 6811,
      "Ġwsa": 6812,
      "ĠwciÄħga": 6813,
      "ĠzbÄĻ": 6814,
      "Å¼em": 6815,
      "Ġkal": 6816,
      "cznoÅĽÄĩ": 6817,
      "Ġgum": 6818,
      "ĠgaÅĤ": 6819,
      "Ġchem": 6820,
      "Ġchil": 6821,
      "Ġniszczy": 6822,
      "Ġszere": 6823,
      "ĠÅ¼yÅĤ": 6824,
      "mienie": 6825,
      "czeÅĽnie": 6826,
      "Ġbarze": 6827,
      "Ġpech": 6828,
      "ĠpowiedzÄħ": 6829,
      "Ġtrafia": 6830,
      "NiÅ¼": 6831,
      "Ġstarym": 6832,
      "!),": 6833,
      "ĠkoleÅĽ": 6834,
      "ĠNas": 6835,
      "Ġtrzymasz": 6836,
      "ĠwrÃ³ciÅĤ": 6837,
      "Ġmocny": 6838,
      "Ġaucie": 6839,
      "ĠÄĩwi": 6840,
      "omoÅĽÄĩ": 6841,
      "Ġmajk": 6842,
      "Ġkoloro": 6843,
      "ĠniezÅĤy": 6844,
      "ĠsÅĤodkie": 6845,
      "Suki": 6846,
      "Ġczerwony": 6847,
      "RRR": 6848,
      "ĠVogue": 6849,
      "PieniÄħdze": 6850,
      "ĠgnÃ³j": 6851,
      ".,": 6852,
      "Fu": 6853,
      "It": 6854,
      "UwaÅ¼": 6855,
      "bany": 6856,
      "ele": 6857,
      "fiÄħ": 6858,
      "gni": 6859,
      "gut": 6860,
      "kujÄĻ": 6861,
      "por": 6862,
      "vin": 6863,
      "zus": 6864,
      "Ġdal": 6865,
      "chamy": 6866,
      "rop": 6867,
      "Ġooo": 6868,
      "Ġold": 6869,
      "ĠpoÅ¼e": 6870,
      "ĠpostaÄĩ": 6871,
      "ĠiP": 6872,
      "ĠjeÅ¼dÅ¼ÄĻ": 6873,
      "kowaÄĩ": 6874,
      "jest": 6875,
      "Ġwyprze": 6876,
      "Ġkop": 6877,
      "luz": 6878,
      "ces": 6879,
      "Ġhasz": 6880,
      "eks": 6881,
      "ĠjadÄħ": 6882,
      "Ġjaraj": 6883,
      "Podob": 6884,
      "ĠlecieÄĩ": 6885,
      "Ġprzygo": 6886,
      "ĠSir": 6887,
      "bona": 6888,
      "amil": 6889,
      "Ġskrom": 6890,
      "Ġstarzy": 6891,
      "Ġdusz": 6892,
      "Ġrewi": 6893,
      "Ġrespekt": 6894,
      "unk": 6895,
      "ĠchciaÅĤy": 6896,
      "Ġdziury": 6897,
      "Ġstraty": 6898,
      "Czyli": 6899,
      "Ġzostawiam": 6900,
      "Ġjebanym": 6901,
      "ĠwyjdÄĻ": 6902,
      "Ġkuma": 6903,
      "Ġkumple": 6904,
      "Ġtempo": 6905,
      "Ġmarne": 6906,
      "Big": 6907,
      "Ġakcje": 6908,
      "ĠhistoriÄĻ": 6909,
      "ĠSolar": 6910,
      "ĠpodejÅĽcie": 6911,
      "Ġbejbi": 6912,
      "ĠÅĽcierwo": 6913,
      "dÅĤugo": 6914,
      "Ani": 6915,
      "Bli": 6916,
      "Siema": 6917,
      "Zja": 6918,
      "gaj": 6919,
      "iÅĤ": 6920,
      "mnie": 6921,
      "pin": 6922,
      "rio": 6923,
      "Ġwnio": 6924,
      "Ġnagro": 6925,
      "iaÅĤa": 6926,
      "Ġpost": 6927,
      "laÅĤa": 6928,
      "Ġchle": 6929,
      "arte": 6930,
      "nikach": 6931,
      "cili": 6932,
      "Ġtake": 6933,
      "ÅĦskie": 6934,
      "Ġwieczo": 6935,
      "ason": 6936,
      "Ġhow": 6937,
      "Popatrz": 6938,
      "Ġwidzenia": 6939,
      "ĠBDF": 6940,
      "Ġday": 6941,
      "Ġpropo": 6942,
      "pij": 6943,
      "dziach": 6944,
      "ĠkarierÄĻ": 6945,
      "ĠPolskÄĻ": 6946,
      "ĠchodziÄĩ": 6947,
      "ĠdomÃ³w": 6948,
      "oddamn": 6949,
      "Ġbroni": 6950,
      "ther": 6951,
      "shir": 6952,
      "ĠgubiÄĻ": 6953,
      "Ġszmata": 6954,
      "Ġhistorie": 6955,
      "tywny": 6956,
      "Ġperspek": 6957,
      "ĠwytÅĤuma": 6958,
      "Halo": 6959,
      "Ġuczucie": 6960,
      "ÅĤoÅ¼yÅĤem": 6961,
      "ĠjeÅºdzi": 6962,
      "Polski": 6963,
      "ĠwspomnieÅĦ": 6964,
      "ĠskrzydÅĤa": 6965,
      "Idzie": 6966,
      "WjeÅ¼dÅ¼am": 6967,
      "Zamy": 6968,
      "ela": 6969,
      "gÅĤy": 6970,
      "ium": 6971,
      "nne": 6972,
      "oru": 6973,
      "woniÄĻ": 6974,
      "Ġsur": 6975,
      "Ġwpis": 6976,
      "Ġwpierdalam": 6977,
      "ĠzÅĤu": 6978,
      "Ġdowo": 6979,
      "nasz": 6980,
      "Ġaby": 6981,
      "Ġmik": 6982,
      "Ġunik": 6983,
      "ĠukÅĤad": 6984,
      "Ġuszach": 6985,
      "Ġszes": 6986,
      "Ġludziach": 6987,
      "piera": 6988,
      "imir": 6989,
      "Ġbitem": 6990,
      "ĠkaÅ¼demu": 6991,
      "pol": 6992,
      "Ġbale": 6993,
      "Ġlodu": 6994,
      "ĠoglÄħda": 6995,
      "ĠOK": 6996,
      "Ġruszy": 6997,
      "ĠpeÅĤnym": 6998,
      "ĠprzÃ³d": 6999,
      "ĠscenÄħ": 7000,
      "Ġwolne": 7001,
      "Ġamen": 7002,
      "Ġakcji": 7003,
      "ĠanioÅĤ": 7004,
      "Ġduma": 7005,
      "Lata": 7006,
      "ĠtrzeÅºwo": 7007,
      "AS": 7008,
      "Buj": 7009,
      "Naje": 7010,
      "mor": 7011,
      "nami": 7012,
      "zem": 7013,
      "Ġkciu": 7014,
      "Ã³sÅĤ": 7015,
      "Ġtoczy": 7016,
      "Ġopa": 7017,
      "Ġocenia": 7018,
      "ĠpowaÅ¼": 7019,
      "tale": 7020,
      "Ġwyd": 7021,
      "Ġwybi": 7022,
      "Ġprzele": 7023,
      "Ġodku": 7024,
      "Ġodkry": 7025,
      "Ġhonor": 7026,
      "dowaÅĤem": 7027,
      "ĠleÅ¼Äħ": 7028,
      "ĠdawaÄĩ": 7029,
      "ĠpiÅĤem": 7030,
      "Ġpale": 7031,
      "ĠPra": 7032,
      "Ġprzezna": 7033,
      "Ġpuls": 7034,
      "padÅĤ": 7035,
      "Rodzi": 7036,
      "niÄĻta": 7037,
      "lly": 7038,
      "Ġpytanie": 7039,
      "Ġfiut": 7040,
      "ĠgÃ³wnem": 7041,
      "MÃ³wiÅĤem": 7042,
      "Ġfanta": 7043,
      "Ġsmutne": 7044,
      "ĠprzyjaÅºÅĦ": 7045,
      "Ġfele": 7046,
      "Ġkoszu": 7047,
      "ĠrymÃ³w": 7048,
      "peÅĤnia": 7049,
      "PamiÄĻtasz": 7050,
      "MyÅĽlaÅĤem": 7051,
      "Ġwojny": 7052,
      "Ġpopraw": 7053,
      "Ġmieszkanie": 7054,
      "Ġbogact": 7055,
      "ĠskÃ³rÄĻ": 7056,
      "Ġfloty": 7057,
      "Ġzbrod": 7058,
      "ĠpÄĻtli": 7059,
      "Chwila": 7060,
      "Ġtrackach": 7061,
      "ĠprzetrwaÄĩ": 7062,
      "ĠzasiÄĻg": 7063,
      "Ġwstecz": 7064,
      "ĠPutin": 7065,
      "mam": 7066,
      "Ġet": 7067,
      "Ġnom": 7068,
      "Ġnud": 7069,
      "Ġpet": 7070,
      "ĠwszedÅĤ": 7071,
      "Ġzmu": 7072,
      "Ġcra": 7073,
      "Ġknaj": 7074,
      "czaÅĤ": 7075,
      "liza": 7076,
      "ÅĤom": 7077,
      "ental": 7078,
      "Ġprzestrze": 7079,
      "ĠoddaÄĩ": 7080,
      "ĠÅĽpisz": 7081,
      "byÄĩ": 7082,
      "ĠMam": 7083,
      "ĠMer": 7084,
      "Ġprzywi": 7085,
      "Ġluzie": 7086,
      "ĠKar": 7087,
      "Ġwolisz": 7088,
      "ĠAf": 7089,
      "Ġpowierz": 7090,
      "Ġpyk": 7091,
      "ĠpozwÃ³l": 7092,
      "ĠPor": 7093,
      "dzÄħc": 7094,
      "Ġhipo": 7095,
      "ĠstraciÄĩ": 7096,
      "Åģy": 7097,
      "ĠrzeÅº": 7098,
      "udi": 7099,
      "ĠpeÅĤnej": 7100,
      "zik": 7101,
      "Ġmogli": 7102,
      "Pierwsze": 7103,
      "proszÄĻ": 7104,
      "PijÄĻ": 7105,
      "Ġznajdzie": 7106,
      "ĠÅĤatwe": 7107,
      "Zamknij": 7108,
      "ĠPanie": 7109,
      "ĠrÃ³Å¼ne": 7110,
      "Ġzamienia": 7111,
      "ĠnienawiÅĽci": 7112,
      "SpÃ³jrz": 7113,
      "Ġpotrzebny": 7114,
      "ĠÅ¼arty": 7115,
      "Ġdzwon": 7116,
      "Ġtalk": 7117,
      "Ġlinijki": 7118,
      "Ġznajomych": 7119,
      "Ġinstynkt": 7120,
      "All": 7121,
      "dan": 7122,
      "kÅĤ": 7123,
      "wana": 7124,
      "Ġtime": 7125,
      "Ġsmy": 7126,
      "Ġsram": 7127,
      "Ġsing": 7128,
      "Ġwstaje": 7129,
      "Ġzbieram": 7130,
      "ĠzÅĤym": 7131,
      "Ġcrew": 7132,
      "ĠklÄħ": 7133,
      "ÅĽla": 7134,
      "chany": 7135,
      "ĠniezaleÅ¼": 7136,
      "leni": 7137,
      "lis": 7138,
      "Ġdostrze": 7139,
      "ÅĤagane": 7140,
      "Ġawan": 7141,
      "Ġwywia": 7142,
      "Ġkorzy": 7143,
      "Ġsznur": 7144,
      "ÅĦcÃ³w": 7145,
      "Ġrock": 7146,
      "ĠhoÅĤ": 7147,
      "Ġbok": 7148,
      "etki": 7149,
      "ĠMali": 7150,
      "ĠprzyszedÅĤem": 7151,
      "ind": 7152,
      "Ġsamego": 7153,
      "ĠPener": 7154,
      "nÄĻli": 7155,
      "nÄĻtrz": 7156,
      "Ġbitu": 7157,
      "CzÅĤowiek": 7158,
      "ĠGdy": 7159,
      "Ġburzy": 7160,
      "Ġlosu": 7161,
      "Ġsiedzisz": 7162,
      "Ġtron": 7163,
      "Å»yÄĩ": 7164,
      "Ġkark": 7165,
      "Ġcienia": 7166,
      "ĠopÃ³r": 7167,
      "Ġpowta": 7168,
      "ĠpÅĤaczÄĻ": 7169,
      "Ġszybkie": 7170,
      "ĠpamiÄĻtasz": 7171,
      "Ġpanowie": 7172,
      "lenda": 7173,
      "ĠzwÅĤo": 7174,
      "Ġszero": 7175,
      "ĠczuÅĤ": 7176,
      "ĠwÅĤasnej": 7177,
      "Ġnowego": 7178,
      "Ġhejt": 7179,
      "Ġsmutno": 7180,
      "ĠÅĽrodka": 7181,
      "ĠdwieÅĽcie": 7182,
      "SÅĤyszysz": 7183,
      "owaÅĤo": 7184,
      "ĠodpowiedÅº": 7185,
      "Ġpomaga": 7186,
      "gadamy": 7187,
      "Ġotwieram": 7188,
      "Ġgorsze": 7189,
      "ĠnawijaÄĩ": 7190,
      "Ġproduk": 7191,
      "Dupy": 7192,
      "Ġdefinicji": 7193,
      "Ġkwadrat": 7194,
      "ĠmÄĻÅ¼czy": 7195,
      "Tekst": 7196,
      "AC": 7197,
      "EN": 7198,
      "HC": 7199,
      "Nas": 7200,
      "Op": 7201,
      "RÃ³b": 7202,
      "SkÄħd": 7203,
      "WÃ³": 7204,
      "Wow": 7205,
      "Zaje": 7206,
      "blan": 7207,
      "get": 7208,
      "namy": 7209,
      "znes": 7210,
      "ĠnÄĻ": 7211,
      "Ġson": 7212,
      "Ġprzym": 7213,
      "Ġdniem": 7214,
      "chia": 7215,
      "ĠjechaÄĩ": 7216,
      "anan": 7217,
      "lika": 7218,
      "Ġminy": 7219,
      "Ġmade": 7220,
      "rywam": 7221,
      "Ġfle": 7222,
      "Ġtechno": 7223,
      "ĠmamÄĻ": 7224,
      "Ġboom": 7225,
      "ĠkawÄĻ": 7226,
      "ĠluÅº": 7227,
      "Ġpiwo": 7228,
      "Ġczytam": 7229,
      "ĠPu": 7230,
      "Ġskru": 7231,
      "Ġskraj": 7232,
      "Ġindziej": 7233,
      "Czujesz": 7234,
      "Ġkulig": 7235,
      "Ġklapki": 7236,
      "edia": 7237,
      "Ġoczywi": 7238,
      "Ġdziwny": 7239,
      "Ġforsy": 7240,
      "Ġwaszych": 7241,
      "ĠpÅĤacÄħ": 7242,
      "ĠpalÄħ": 7243,
      "ĠmogÅĤa": 7244,
      "Ġcyk": 7245,
      "Ġjedyna": 7246,
      "Ġfoto": 7247,
      "Ġfilmy": 7248,
      "Kurwy": 7249,
      "ĠuÅĽmiechem": 7250,
      "Ġoczami": 7251,
      "ĠwejÅĽcie": 7252,
      "ĠÅĽcianach": 7253,
      "ĠfurÄĻ": 7254,
      "Ġeksp": 7255,
      "ĠBedo": 7256,
      "ĠnapisaÄĩ": 7257,
      "Ġkorpo": 7258,
      "niosÅĤem": 7259,
      "Ġpiosenki": 7260,
      "ĠdopÃ³ki": 7261,
      "Î¿Ï": 7262,
      "ĠpojÄĻcia": 7263,
      "Los": 7264,
      "Mus": 7265,
      "OO": 7266,
      "Umie": 7267,
      "UÅĽmie": 7268,
      "dla": 7269,
      "mem": 7270,
      "uki": 7271,
      "wcy": 7272,
      "iej": 7273,
      "akaÅĤ": 7274,
      "Ġnai": 7275,
      "Ġpopra": 7276,
      "Ġjeee": 7277,
      "Ġdotyka": 7278,
      "Ã³wka": 7279,
      "Ġain": 7280,
      "Ġuto": 7281,
      "Ġucha": 7282,
      "Poza": 7283,
      "ĠspÃ³jrz": 7284,
      "ĠsprÃ³buj": 7285,
      "Jaka": 7286,
      "ĠSim": 7287,
      "Ġdzieli": 7288,
      "Ġchodnik": 7289,
      "Ġinte": 7290,
      "stolet": 7291,
      "Ġkuzyn": 7292,
      "padnie": 7293,
      "Ġparkiet": 7294,
      "Ġhity": 7295,
      "Ġtworzy": 7296,
      "ĠpierwszÄħ": 7297,
      "Ġtemacie": 7298,
      "ĠplaÅ¼y": 7299,
      "stÄĻpny": 7300,
      "Ġwkurwiony": 7301,
      "Ġxanax": 7302,
      "ĠsprzedaÅĤ": 7303,
      "ĠwyglÄħdasz": 7304,
      "Ġskarbie": 7305,
      "Ġblanta": 7306,
      "ĠflotÄĻ": 7307,
      "ĠAmery": 7308,
      "Ġprzypomina": 7309,
      "JakoÅĽ": 7310,
      "Ġzabraknie": 7311,
      "Ilu": 7312,
      "Pono": 7313,
      "RÄĻ": 7314,
      "inie": 7315,
      "sche": 7316,
      "Ġnerw": 7317,
      "Ġschi": 7318,
      "Ġpart": 7319,
      "Å¼am": 7320,
      "Ġpola": 7321,
      "Ġpojebane": 7322,
      "Ġchla": 7323,
      "Ġapa": 7324,
      "ĠmarzÄĻ": 7325,
      "tyna": 7326,
      "tory": 7327,
      "Ġrobie": 7328,
      "back": 7329,
      "ruch": 7330,
      "ĠÅ¼yÅĤach": 7331,
      "Podzie": 7332,
      "Ġkapie": 7333,
      "JakiÅĽ": 7334,
      "Ġdale": 7335,
      "Ġprogres": 7336,
      "Ġpode": 7337,
      "ĠmuzÄĻ": 7338,
      "Ġcipy": 7339,
      "Ġbida": 7340,
      "ĠAM": 7341,
      "ĠrÄĻkÄħ": 7342,
      "Ġgadasz": 7343,
      "ĠchÅĤopie": 7344,
      "Ġstrat": 7345,
      "Ġryje": 7346,
      "ĠVe": 7347,
      "ĠMagi": 7348,
      "Ġdziary": 7349,
      "Ġplanie": 7350,
      "Prob": 7351,
      "Ġlecisz": 7352,
      "ĠChar": 7353,
      "Ġtekstach": 7354,
      "raÅ¼a": 7355,
      "Ġsmutek": 7356,
      "ĠkamieÅĦ": 7357,
      "Ġwstydu": 7358,
      "Ġprezy": 7359,
      "Ġzimne": 7360,
      "ĠbÅĤÄĻdÃ³w": 7361,
      "ĠwÅĤadzÄĻ": 7362,
      "ĠWarszawy": 7363,
      "Ġschodach": 7364,
      "Ġstrzela": 7365,
      "Ġpuszcza": 7366,
      "Ġszluga": 7367,
      "Lecimy": 7368,
      "Ġmieszk": 7369,
      "ombao": 7370,
      "Dziewczyny": 7371,
      "ĠwymyÅĽli": 7372,
      "CiÄĻÅ¼ko": 7373,
      "ĠpogadaÄĩ": 7374,
      "Szczerze": 7375,
      "EM": 7376,
      "PrÃ³b": 7377,
      "Tej": 7378,
      "gramy": 7379,
      "here": 7380,
      "reni": 7381,
      "zek": 7382,
      "Ġwska": 7383,
      "ĠwkrÃ³tce": 7384,
      "Ġmgle": 7385,
      "Ġmroku": 7386,
      "iach": 7387,
      "Ġilo": 7388,
      "Ġzali": 7389,
      "Ġdot": 7390,
      "Ġwyraz": 7391,
      "ĠuczÄĻ": 7392,
      "Ġszare": 7393,
      "wolu": 7394,
      "Ġrower": 7395,
      "Ġmamie": 7396,
      "doo": 7397,
      "ĠspÅĤa": 7398,
      "ĠBer": 7399,
      "ĠTes": 7400,
      "ĠpodwÃ³j": 7401,
      "Ġpach": 7402,
      "pii": 7403,
      "ĠdobÄĻ": 7404,
      "ĠDla": 7405,
      "uns": 7406,
      "Ġes": 7407,
      "Ġkurz": 7408,
      "Ġloja": 7409,
      "ĠpragnÄĻ": 7410,
      "Rozumie": 7411,
      "ĠFor": 7412,
      "braÅĤem": 7413,
      "Ġbiegu": 7414,
      "Ludzi": 7415,
      "giel": 7416,
      "Ġkolejce": 7417,
      "Ġkreski": 7418,
      "ĠrodzicÃ³w": 7419,
      "ĠpytaÄĩ": 7420,
      "enius": 7421,
      "aaaa": 7422,
      "BÄĻdziesz": 7423,
      "Ġsprawie": 7424,
      "ĠÅĽcianie": 7425,
      "ĠnienawidzÄħ": 7426,
      "Ġdzieciaku": 7427,
      "ĠInter": 7428,
      "ĠtrafiÅĤ": 7429,
      "ĠskÃ³ra": 7430,
      "ĠwÄħtpli": 7431,
      "ĠniektÃ³rzy": 7432,
      "Ġochro": 7433,
      "ĠspÅĤywa": 7434,
      "Ġtatua": 7435,
      "ĠodnaleÅºÄĩ": 7436,
      "'re": 7437,
      "AR": 7438,
      "PrÄĻ": 7439,
      "dr": 7440,
      "znaj": 7441,
      "Î¬": 7442,
      "ĠJestem": 7443,
      "ĠwiÄħ": 7444,
      "Ġwpierdala": 7445,
      "ĠwmÃ³w": 7446,
      "Ġwprost": 7447,
      "Ġzma": 7448,
      "Å¼enia": 7449,
      "Ġdane": 7450,
      "Ġniele": 7451,
      "Ġniewi": 7452,
      "Ġpolo": 7453,
      "Ġpolej": 7454,
      "ĠÅ¼aÅĤ": 7455,
      "jeje": 7456,
      "Ġmorzu": 7457,
      "Niepo": 7458,
      "Ġprzejebane": 7459,
      "doks": 7460,
      "PosÅĤuchaj": 7461,
      "Ġspin": 7462,
      "mieÅĦ": 7463,
      "ĠBie": 7464,
      "casz": 7465,
      "Ġpodaj": 7466,
      "Ġpik": 7467,
      "jÄħÅĤ": 7468,
      "ĠPrzy": 7469,
      "Ġmordziaty": 7470,
      "Ġmega": 7471,
      "Ġbandy": 7472,
      "Ġswojego": 7473,
      "ĠzostawiÄĩ": 7474,
      "appy": 7475,
      "Ġnadejdzie": 7476,
      "Ġwarte": 7477,
      "Ġwarsza": 7478,
      "Ġokna": 7479,
      "Ġkielon": 7480,
      "Ġvo": 7481,
      "Ġauta": 7482,
      "torem": 7483,
      "Raperzy": 7484,
      "Ġpolskie": 7485,
      "âĢĿ,": 7486,
      "ĠkartÄĻ": 7487,
      "Inni": 7488,
      "Ġszampana": 7489,
      "Ġperf": 7490,
      "ĠcodziennoÅĽÄĩ": 7491,
      "stiÅ¼": 7492,
      "Jebany": 7493,
      "ĠwybraÅĤem": 7494,
      "Ġprzyjaciel": 7495,
      "Ġtelewizor": 7496,
      "ZrobiÄĻ": 7497,
      "ĠskÅĤada": 7498,
      "ĠzupeÅĤnie": 7499,
      "ĠnaprawiÄĩ": 7500,
      "ĠÅĽniadanie": 7501,
      "Podobno": 7502,
      "CBW": 7503,
      "DJ": 7504,
      "Warsza": 7505,
      "fki": 7506,
      "jÅĽ": 7507,
      "prawdÄĻ": 7508,
      "ving": 7509,
      "Ġ&": 7510,
      "Ġtwier": 7511,
      "ĠwÅĤÄħ": 7512,
      "Ġzwal": 7513,
      "Ġkl": 7514,
      "rasta": 7515,
      "rzaÄĩ": 7516,
      "iada": 7517,
      "ĠpoÅĽcie": 7518,
      "ĠpodaÄĩ": 7519,
      "ĠposÅĤu": 7520,
      "ĠposÅĤuchaj": 7521,
      "ĠgoniÄĻ": 7522,
      "lina": 7523,
      "lary": 7524,
      "Ġchmur": 7525,
      "Ġzapew": 7526,
      "ĠwyÅĤÄħ": 7527,
      "tok": 7528,
      "toÅĽÄĩ": 7529,
      "ĠdziÄĻkujÄĻ": 7530,
      "Ġszlak": 7531,
      "lout": 7532,
      "Ġles": 7533,
      "Ġkaca": 7534,
      "Ġkalenda": 7535,
      "szystko": 7536,
      "caÅĤ": 7537,
      "ink": 7538,
      "ima": 7539,
      "gaÅĤem": 7540,
      "ĠSte": 7541,
      "ĠpijÄħ": 7542,
      "Ġpigu": 7543,
      "Czym": 7544,
      "Ġspotk": 7545,
      "DokÅĤadnie": 7546,
      "ĠznaÅĤem": 7547,
      "Ġpary": 7548,
      "Ġtrzecia": 7549,
      "ĠwalÄħ": 7550,
      "Ġdysk": 7551,
      "Ġhalo": 7552,
      "ĠczÄĻÅĽci": 7553,
      "Ġumiera": 7554,
      "ĠzmieniÅĤem": 7555,
      "Ġsprawia": 7556,
      "ĠkrwiÄħ": 7557,
      "Para": 7558,
      "ĠzmieniaÄĩ": 7559,
      "Ġakcja": 7560,
      "ĠogarnÄħÄĩ": 7561,
      "Ġojcem": 7562,
      "SÅĤucham": 7563,
      "Ġdresie": 7564,
      "Ġwakacji": 7565,
      "ĠzrozumieÄĩ": 7566,
      "Ġpotrafisz": 7567,
      "Ġotwiera": 7568,
      "ĠwyobraÅº": 7569,
      "Drugi": 7570,
      "MoÅ¼emy": 7571,
      "ĠÃł": 7572,
      "Serio": 7573,
      "AK": 7574,
      "KÄĻ": 7575,
      "SÅĤa": 7576,
      "pen": 7577,
      "Ġsla": 7578,
      "ĠwbiÄĩ": 7579,
      "Ġcmen": 7580,
      "ÅĽwiat": 7581,
      "chnÄħÄĩ": 7582,
      "ĠnieÅĽ": 7583,
      "Ġniewin": 7584,
      "Ġtoksy": 7585,
      "ank": 7586,
      "wicz": 7587,
      "towaÅĤem": 7588,
      "Ġfel": 7589,
      "Ġoddam": 7590,
      "nock": 7591,
      "jach": 7592,
      "ĠMan": 7593,
      "czeki": 7594,
      "ĠBon": 7595,
      "Ġgol": 7596,
      "deo": 7597,
      "ĠpaÅĤÄĻ": 7598,
      "Ġtab": 7599,
      "Moc": 7600,
      "ĠDis": 7601,
      "owiec": 7602,
      "Ġpotencja": 7603,
      "escho": 7604,
      "ĠtworzÄĻ": 7605,
      "ĠmÅĤod": 7606,
      "ĠMax": 7607,
      "Ġkumpel": 7608,
      "miertel": 7609,
      "Ġtelefonie": 7610,
      "Muzyka": 7611,
      "Ġwpadnie": 7612,
      "Pierdol": 7613,
      "Dobre": 7614,
      "Ġniezn": 7615,
      "Inter": 7616,
      "Ġzimny": 7617,
      "Ġryju": 7618,
      "ĠudawaÄĩ": 7619,
      "Ġgangster": 7620,
      "ĠTwoim": 7621,
      "Ġjasno": 7622,
      "Ġwant": 7623,
      "Ġdemony": 7624,
      "ĠÅĤÃ³Å¼ka": 7625,
      "Ġambicje": 7626,
      "Ġszlugi": 7627,
      "Ġotwarte": 7628,
      "Ġque": 7629,
      "ĠdowÃ³d": 7630,
      "Gruby": 7631,
      "Ġtracku": 7632,
      "Ġistnieje": 7633,
      "WiÄĻkszoÅĽÄĩ": 7634,
      "ĠMichael": 7635,
      "DopÃ³ki": 7636,
      "ES": 7637,
      "KÅĤa": 7638,
      "LI": 7639,
      "Sh": 7640,
      "bro": 7641,
      "ople": 7642,
      "sam": 7643,
      "Ã¨": 7644,
      "Ġdance": 7645,
      "chani": 7646,
      "ĠnaÅĤo": 7647,
      "Ġocen": 7648,
      "Ġjet": 7649,
      "kowa": 7650,
      "Ġdogo": 7651,
      "nikiem": 7652,
      "niÐµ": 7653,
      "niÃ³sÅĤ": 7654,
      "Ġmora": 7655,
      "owego": 7656,
      "ĠmaÅĤÄħ": 7657,
      "Ġwypa": 7658,
      "lujÄħ": 7659,
      "Ġszach": 7660,
      "Ġwiek": 7661,
      "atch": 7662,
      "doÅĽci": 7663,
      "ĠÅ¼yjesz": 7664,
      "Jego": 7665,
      "Ġnocach": 7666,
      "Ġkapu": 7667,
      "Ġprzykry": 7668,
      "Ġlustrze": 7669,
      "Ġluksu": 7670,
      "Ġmury": 7671,
      "Ġrozbi": 7672,
      "MogÅĤem": 7673,
      "Ġinf": 7674,
      "DziÄĻkujÄĻ": 7675,
      "ĠGenius": 7676,
      "Ġstacji": 7677,
      "Ġsufit": 7678,
      "pytaj": 7679,
      "Ġhajsie": 7680,
      "ĠznaÅĤ": 7681,
      "ĠszyjÄĻ": 7682,
      "ĠsÅĤuchajÄħ": 7683,
      "Åļpie": 7684,
      "Ġstylem": 7685,
      "ĠsiÅĤa": 7686,
      "ĠzostaÅĤem": 7687,
      "Ġciele": 7688,
      "Ġkit": 7689,
      "Ġkici": 7690,
      "ĠPolak": 7691,
      "Ġdychy": 7692,
      "Ġmusimy": 7693,
      "Ġformie": 7694,
      "Ġwady": 7695,
      "ĠpÅĤaci": 7696,
      "eee": 7697,
      "Ġszafie": 7698,
      "Ġklip": 7699,
      "shi": 7700,
      "Ġprzejm": 7701,
      "owoli": 7702,
      "stanÄħ": 7703,
      "Ġkartki": 7704,
      "Ġbrudny": 7705,
      "ĠpieprzÄĻ": 7706,
      "Ġszczur": 7707,
      "Ġbluz": 7708,
      "ĠoÅĽce": 7709,
      "Ġczerwone": 7710,
      "ĠzacznÄĻ": 7711,
      "ĠPLNY": 7712,
      "owiada": 7713,
      "sfal": 7714,
      "Ġstudiu": 7715,
      "Brat": 7716,
      "Don": 7717,
      "Pal": 7718,
      "War": 7719,
      "lnych": 7720,
      "tkiem": 7721,
      "Ġokien": 7722,
      "ĠpoÅĤÄħ": 7723,
      "ĠjebiÄĻ": 7724,
      "lint": 7725,
      "Ġchor": 7726,
      "enny": 7727,
      "ĠmaÅĤego": 7728,
      "ĠbyÅĤaÅĽ": 7729,
      "Ġkolan": 7730,
      "ĠwierzÄħ": 7731,
      "Ġprzelew": 7732,
      "Ġodwagi": 7733,
      "lock": 7734,
      "Jedni": 7735,
      "ĠkaÅ¼e": 7736,
      "âĢŀ": 7737,
      "ĠpodwÃ³": 7738,
      "ĠrozpÄĻ": 7739,
      "ĠskrÃ³": 7740,
      "ĠwolÄħ": 7741,
      "Ġinten": 7742,
      "Czuje": 7743,
      "ĠAt": 7744,
      "anik": 7745,
      "Ġducha": 7746,
      "unki": 7747,
      "Ġgraj": 7748,
      "Ġgrani": 7749,
      "Ġgrane": 7750,
      "skak": 7751,
      "Ġstoisz": 7752,
      "Ġogni": 7753,
      "ĠbyÅĤbym": 7754,
      "Ġstarcie": 7755,
      "Koniec": 7756,
      "Ġnadgar": 7757,
      "Ġkarma": 7758,
      "oooo": 7759,
      "Ġprzemi": 7760,
      "pierdoliÅĤ": 7761,
      "ĠwÅĤasnych": 7762,
      "ĠzabiorÄĻ": 7763,
      "ĠÅºli": 7764,
      "ĠÅĽcianÄĻ": 7765,
      "uuu": 7766,
      "Siedem": 7767,
      "Ġspadam": 7768,
      "ĠpiÄħtek": 7769,
      "ĠchÄĻÄĩ": 7770,
      "Ġcudzy": 7771,
      "Ġzrozumiesz": 7772,
      "ĠodwrÃ³": 7773,
      "Ġszeptem": 7774,
      "ĠnakrÄĻ": 7775,
      "Ġzamykam": 7776,
      "Ġokazji": 7777,
      "PoznaÅĤem": 7778,
      "ĠKurwa": 7779,
      "ĠkrÃ³tkie": 7780,
      "Codziennie": 7781,
      "Plus": 7782,
      "Ucie": 7783,
      "bka": 7784,
      "zard": 7785,
      "ÅĤajÄħ": 7786,
      "Ġsiad": 7787,
      "Ġwart": 7788,
      "arny": 7789,
      "Ġmodel": 7790,
      "owani": 7791,
      "Ġwybie": 7792,
      "ĠwysÅĤa": 7793,
      "tora": 7794,
      "Ġodbieram": 7795,
      "Ġste": 7796,
      "etÄĻ": 7797,
      "ĠKto": 7798,
      "Ġsub": 7799,
      "ĠPolo": 7800,
      "PrzestaÅĦ": 7801,
      "Ġszyby": 7802,
      "ĠpeÅĤnÄħ": 7803,
      "ĠostatniÄħ": 7804,
      "ĠJacka": 7805,
      "Ġkilomet": 7806,
      "Ġmarzenie": 7807,
      "Ġzabij": 7808,
      "ĠzwrotkÄĻ": 7809,
      "Ġkoszul": 7810,
      "Ġskacze": 7811,
      "peÅĤniam": 7812,
      "Stop": 7813,
      "Ġfarmaz": 7814,
      "ĠÅĽwinie": 7815,
      "ĠkoleÅ¼ka": 7816,
      "ĠÅģÃ³dÅº": 7817,
      "Ġbizne": 7818,
      "ĠgÅĤupio": 7819,
      "ĠstÃ³wÄĻ": 7820,
      "Ġzdrada": 7821,
      "ĠszmatÄħ": 7822,
      "ĠzabraÅĤ": 7823,
      "STR": 7824,
      "Ð¾Ð": 7825,
      "Ġobserw": 7826,
      "BA": 7827,
      "Ciem": 7828,
      "Jo": 7829,
      "Kla": 7830,
      "Pis": 7831,
      "Wro": 7832,
      "gend": 7833,
      "hh": 7834,
      "nuje": 7835,
      "psi": 7836,
      "ris": 7837,
      "tt": 7838,
      "tno": 7839,
      "uda": 7840,
      "Ġzem": 7841,
      "Ġbiedy": 7842,
      "Ġkund": 7843,
      "Äĩmy": 7844,
      "Äĩmi": 7845,
      "leje": 7846,
      "rot": 7847,
      "ĠpoÅĤu": 7848,
      "ĠÅ¼ony": 7849,
      "Ã³wkÄĻ": 7850,
      "nimy": 7851,
      "Ġayy": 7852,
      "onem": 7853,
      "Ġtypu": 7854,
      "Ġwyru": 7855,
      "Ġwysta": 7856,
      "Ġwyzna": 7857,
      "das": 7858,
      "Ġbycia": 7859,
      "wizo": 7860,
      "wiec": 7861,
      "ĠÅĽlad": 7862,
      "dol": 7863,
      "mieni": 7864,
      "wiaj": 7865,
      "ĠMolly": 7866,
      "Ġsamej": 7867,
      "Ġdachu": 7868,
      "ĠproszÄħ": 7869,
      "Zabierz": 7870,
      "ĠmiaÅĤy": 7871,
      "ĠzewnÄħtrz": 7872,
      "ĠKURWA": 7873,
      "Ġobcy": 7874,
      "ajera": 7875,
      "ĠFa": 7876,
      "Ġstarszy": 7877,
      "ĠmyÅĽlach": 7878,
      "Ġremix": 7879,
      "ĠchÅĤopa": 7880,
      "Ġprzedsta": 7881,
      "Ġklasa": 7882,
      "oodoo": 7883,
      "Ġokru": 7884,
      "ĠkrzyczÄħ": 7885,
      "eezy": 7886,
      "Ġfucki": 7887,
      "ciÄħgam": 7888,
      "ĠsaÅĤa": 7889,
      "sterdam": 7890,
      "que": 7891,
      "Same": 7892,
      "ĠrÃ³Å¼nych": 7893,
      "Ġofer": 7894,
      "Ġpomocy": 7895,
      "ĠudaÅĤo": 7896,
      "ĠTwojÄħ": 7897,
      "Ġwrzucam": 7898,
      "ĠtrafiÄĩ": 7899,
      "Ġosob": 7900,
      "ĠdojÅĽÄĩ": 7901,
      "Ġgorszy": 7902,
      "ĠWoj": 7903,
      "ĠzarabiaÄĩ": 7904,
      "ĠuwaÅ¼aj": 7905,
      "ĠsÅĤabych": 7906,
      "ĠmoÅ¼liwoÅĽci": 7907,
      "ĠzniszczyÄĩ": 7908,
      "Ġkwiaty": 7909,
      "Ġzechce": 7910,
      "ĠksiÄĻÅ¼yc": 7911,
      "ĠYouTu": 7912,
      "UwaÅ¼aj": 7913,
      "Klu": 7914,
      "Pla": 7915,
      "bang": 7916,
      "dki": 7917,
      "gne": 7918,
      "piÄĻk": 7919,
      "wski": 7920,
      "wnÄĻtrz": 7921,
      "Ġskaz": 7922,
      "Ġwon": 7923,
      "Ġzwa": 7924,
      "Å¼ony": 7925,
      "ĠkÅĤ": 7926,
      "Ġkeep": 7927,
      "Ġnat": 7928,
      "Ġporoz": 7929,
      "rzec": 7930,
      "Ġzabieram": 7931,
      "ĠtyÅĤek": 7932,
      "Ġmali": 7933,
      "Ġwyczy": 7934,
      "Ġwydo": 7935,
      "ÅĦczÄĻ": 7936,
      "czyli": 7937,
      "logi": 7938,
      "Ġspli": 7939,
      "Ġwidzia": 7940,
      "ĠSam": 7941,
      "ĠSÅĤa": 7942,
      "Ġprogram": 7943,
      "ĠpiÅºdzie": 7944,
      "Ġziomkiem": 7945,
      "ĠWhite": 7946,
      "ĠKing": 7947,
      "Ġbezcze": 7948,
      "ĠDon": 7949,
      "ĠRol": 7950,
      "Ġdusza": 7951,
      "ĠgdybyÅĽ": 7952,
      "Ġspodzie": 7953,
      "padÅĤa": 7954,
      "Nowa": 7955,
      "Ġzamach": 7956,
      "Odpalam": 7957,
      "Ġprawdzie": 7958,
      "Ðµj": 7959,
      "Ġtrzecie": 7960,
      "pierdalamy": 7961,
      "ĠEm": 7962,
      "Å»yjemy": 7963,
      "Ġryzy": 7964,
      "ĠNowy": 7965,
      "edi": 7966,
      "ĠmajÄħc": 7967,
      "ĠpÅĤacÄĻ": 7968,
      "Ġzaku": 7969,
      "Ġpalcach": 7970,
      "Ġkumam": 7971,
      "Ġfura": 7972,
      "ĠCha": 7973,
      "Musi": 7974,
      "Ġwampi": 7975,
      "ĠMichaÅĤ": 7976,
      "ĠzapomniaÅĤem": 7977,
      "Ġplec": 7978,
      "Ġosiedli": 7979,
      "Ġzamieniam": 7980,
      "ĠÅĽcian": 7981,
      "Ġsyfu": 7982,
      "ĠdÅºwi": 7983,
      "Ġuwiel": 7984,
      "ĠchÅĤopcy": 7985,
      "ĠgÄĻbÄĻ": 7986,
      "Ġweeken": 7987,
      "ĠprÄĻdko": 7988,
      "Ġprowadzi": 7989,
      "Ġprzypadek": 7990,
      "Ġmieszkam": 7991,
      "ĠpodwÃ³rka": 7992,
      "Ġkosmos": 7993,
      "Ġefekt": 7994,
      "ĠgasnÄħ": 7995,
      "Ġkompleksy": 7996,
      "Ġszacunku": 7997,
      "Ġziomeczku": 7998,
      "ĠiPhone": 7999,
      "An": 8000,
      "Ar": 8001,
      "KE": 8002,
      "OP": 8003,
      "Osied": 8004,
      "ket": 8005,
      "lka": 8006,
      "twy": 8007,
      "ziom": 8008,
      "Ġswej": 8009,
      "ĠwkÅĤadam": 8010,
      "ĠbaÅĤ": 8011,
      "strzym": 8012,
      "stkÄħ": 8013,
      "raÅĤem": 8014,
      "ĠgÅĤa": 8015,
      "Ġgust": 8016,
      "ning": 8017,
      "Ġkoko": 8018,
      "top": 8019,
      "Ġszto": 8020,
      "Ġfre": 8021,
      "Ġwieje": 8022,
      "Ġprzepra": 8023,
      "Ġboisz": 8024,
      "Poka": 8025,
      "Ġleczy": 8026,
      "ĠleÅ¼ÄĻ": 8027,
      "Ġprowo": 8028,
      "Ġkurwami": 8029,
      "ĠgoÅĽciem": 8030,
      "Ġchodni": 8031,
      "BojÄĻ": 8032,
      "Ġlice": 8033,
      "ĠKi": 8034,
      "Ġdobrej": 8035,
      "ĠRu": 8036,
      "WyglÄħda": 8037,
      "Ġtrasy": 8038,
      "Ġbucha": 8039,
      "SzczÄĻ": 8040,
      "Ġklap": 8041,
      "ĠNew": 8042,
      "Ġdysko": 8043,
      "Ġpanem": 8044,
      "ĠtaÅĦczysz": 8045,
      "ĠwyjÅĽcie": 8046,
      "Ġklik": 8047,
      "ĠsÅĤowach": 8048,
      "ĠwpadÅĤ": 8049,
      "Ġginie": 8050,
      "Ġ100": 8051,
      "ĠmiÄĻso": 8052,
      "Ref": 8053,
      "Ġgubi": 8054,
      "ĠÅĤyka": 8055,
      "ĠnazwÄĻ": 8056,
      "Ġekipy": 8057,
      "ĠnagrywaÄĩ": 8058,
      "bijaj": 8059,
      "ggy": 8060,
      "Ġmisja": 8061,
      "Ġzegarek": 8062,
      "ĠpodÅĤodze": 8063,
      "Ġbrzeg": 8064,
      "Ġzeszyt": 8065,
      "ĠBMW": 8066,
      "Ġprzeszkadza": 8067,
      "Ġoznacza": 8068,
      "Ġszesna": 8069,
      "eschool": 8070,
      "Got": 8071,
      "RÃ³Å¼": 8072,
      "Sami": 8073,
      "ec": 8074,
      "gajÄħ": 8075,
      "Ã¼": 8076,
      "Ġtwe": 8077,
      "Ġtchu": 8078,
      "Ġsc": 8079,
      "Ġsum": 8080,
      "Ġpin": 8081,
      "Å¼ki": 8082,
      "Ġbel": 8083,
      "rzemy": 8084,
      "dzamy": 8085,
      "ĠzapaÅĤ": 8086,
      "ÅĤaszcza": 8087,
      "tat": 8088,
      "ĠwypierdalaÄĩ": 8089,
      "Ġupra": 8090,
      "Ġfrom": 8091,
      "Ġflak": 8092,
      "Ġhom": 8093,
      "jasz": 8094,
      "dora": 8095,
      "Ġprzys": 8096,
      "Ġlustra": 8097,
      "Ġprost": 8098,
      "Ġprofes": 8099,
      "ĠgoniÄĩ": 8100,
      "Ġpapa": 8101,
      "Boli": 8102,
      "Ġrozwi": 8103,
      "ĠWam": 8104,
      "Ġreali": 8105,
      "ĠzostanÄĻ": 8106,
      "skÃ³w": 8107,
      "ĠÅĤza": 8108,
      "Ġpuk": 8109,
      "Ġstory": 8110,
      "czÄħÄĩ": 8111,
      "nymi": 8112,
      "Kobie": 8113,
      "chodzisz": 8114,
      "Sze": 8115,
      "kurwa": 8116,
      "ĠZe": 8117,
      "ĠsÅĤyszÄħ": 8118,
      "Ġwersach": 8119,
      "Ġpanna": 8120,
      "Star": 8121,
      "Ġfala": 8122,
      "ĠgadajÄħ": 8123,
      "ĠgadkÄĻ": 8124,
      "ĠsÅĤuchaÅĤ": 8125,
      "Ġhejter": 8126,
      "Ġskum": 8127,
      "Ġpolicja": 8128,
      "Ġwrogiem": 8129,
      "MyÅĽlÄħ": 8130,
      "ĠMaria": 8131,
      "Ġbomba": 8132,
      "ĠbombÄĻ": 8133,
      "ĠwÅĤadza": 8134,
      "Kolejna": 8135,
      "ĠDead": 8136,
      "Ġliczby": 8137,
      "ĠKubi": 8138,
      "Ġkultury": 8139,
      "niosÄĻ": 8140,
      "venchy": 8141,
      "ĠBull": 8142,
      "ĠwjechaÅĤ": 8143,
      "ĠdiabÅĤem": 8144,
      "ĠdzwoniÄĻ": 8145,
      "ĠÅĽmieszne": 8146,
      "Droga": 8147,
      "wiÄĻcej": 8148,
      "Ġhipokry": 8149,
      "AJ": 8150,
      "come": 8151,
      "enie": 8152,
      "ic": 8153,
      "Ġtrip": 8154,
      "Ġsro": 8155,
      "Ġzwol": 8156,
      "ĠdwÃ³j": 8157,
      "Ġdbam": 8158,
      "ĠksztaÅĤ": 8159,
      "dzasz": 8160,
      "czce": 8161,
      "Ġif": 8162,
      "Ġgin": 8163,
      "rzeni": 8164,
      "arek": 8165,
      "dyn": 8166,
      "dzieÅ¼": 8167,
      "Ġmach": 8168,
      "reet": 8169,
      "Ġkoper": 8170,
      "ÅĦska": 8171,
      "Ġprzeka": 8172,
      "ĠÅĽwit": 8173,
      "byÅĤem": 8174,
      "loty": 8175,
      "lozo": 8176,
      "Ġjab": 8177,
      "Ġspor": 8178,
      "Ġnosa": 8179,
      "Ġprzynajmniej": 8180,
      "Ġsamemu": 8181,
      "ĠdzieliÄĩ": 8182,
      "nÄĻÅĤo": 8183,
      "Typ": 8184,
      "Ġpiersi": 8185,
      "Ġtamte": 8186,
      "Ġtamtej": 8187,
      "Ġstali": 8188,
      "ĠwedÅĤu": 8189,
      "house": 8190,
      "rium": 8191,
      "skaÄĩ": 8192,
      "wario": 8193,
      "ĠzÅĤotem": 8194,
      "Ġjebnie": 8195,
      "paku": 8196,
      "Ġkib": 8197,
      "ĠPolsko": 8198,
      "Ġczarno": 8199,
      "Ġtelefony": 8200,
      "ĠkÅĤamiÄħ": 8201,
      "Ġgrobu": 8202,
      "ĠdziewczynÄĻ": 8203,
      "kÅĤada": 8204,
      "ĠpomyÅĽl": 8205,
      "Baby": 8206,
      "Ġsukcesu": 8207,
      "Ġzdarzy": 8208,
      "Ġpokolenie": 8209,
      "ĠÅĽwir": 8210,
      "ĠekipÄħ": 8211,
      "ĠrobotÄĻ": 8212,
      "Solar": 8213,
      "ĠzachowaÄĩ": 8214,
      "Ġherba": 8215,
      "ĠwiÄĻzie": 8216,
      "ĠznalazÅĤ": 8217,
      "Ġspierdalaj": 8218,
      "Ġkierunek": 8219,
      "Ġgonna": 8220,
      "ĠÅ¼ywioÅĤ": 8221,
      "Trudno": 8222,
      "ĠtytuÅĤ": 8223,
      "Ġlimit": 8224,
      "ĠpodwÃ³rek": 8225,
      "ĠwedÅĤug": 8226,
      "Blo": 8227,
      "But": 8228,
      "Kie": 8229,
      "Let": 8230,
      "MS": 8231,
      "Wer": 8232,
      "WWA": 8233,
      "ZresztÄħ": 8234,
      "cujÄĻ": 8235,
      "gany": 8236,
      "kan": 8237,
      "lami": 8238,
      "ore": 8239,
      "Å¡": 8240,
      "Ġptak": 8241,
      "struk": 8242,
      "Ġnaraz": 8243,
      "czkÄħ": 8244,
      "Ġton": 8245,
      "Ġopo": 8246,
      "Ġpodzi": 8247,
      "Ġjakich": 8248,
      "Ġdol": 8249,
      "Ġdomach": 8250,
      "Ġmocy": 8251,
      "Ġmaszy": 8252,
      "ĠwydaÄĩ": 8253,
      "gom": 8254,
      "tyczny": 8255,
      "wolni": 8256,
      "biej": 8257,
      "ÅĦstwo": 8258,
      "Ġwiecie": 8259,
      "Ġprzelot": 8260,
      "ĠbolÄħ": 8261,
      "Poli": 8262,
      "Ġlesie": 8263,
      "Ġsok": 8264,
      "ĠrapowaÄĩ": 8265,
      "ĠlitoÅĽci": 8266,
      "Typy": 8267,
      "ĠKim": 8268,
      "Ġchcecie": 8269,
      "Ġpeople": 8270,
      "ĠgraÅĤem": 8271,
      "Ġpucha": 8272,
      "Ġpytania": 8273,
      "mowa": 8274,
      "ĠcaÅĤoÅĽÄĩ": 8275,
      "szczu": 8276,
      "Ġrodzin": 8277,
      "MiaÅĤa": 8278,
      "Ġpizdo": 8279,
      "Pij": 8280,
      "ĠwaÅ¼ny": 8281,
      "Ġciach": 8282,
      "ĠprestiÅ¼": 8283,
      "Ġtorby": 8284,
      "RobiÄħ": 8285,
      "SÅĤucha": 8286,
      "Ġinternet": 8287,
      "SÅĤyszaÅĤem": 8288,
      "Prawie": 8289,
      "ĠwidzÄħc": 8290,
      "Ġspotkasz": 8291,
      "ĠspotkaÄĩ": 8292,
      "ĠposzÅĤa": 8293,
      "Polska": 8294,
      "Ġpodobno": 8295,
      "Ġpretensje": 8296,
      "Ġstandard": 8297,
      "Otwieram": 8298,
      "PonoÄĩ": 8299,
      "ON": 8300,
      "Oby": 8301,
      "Pak": 8302,
      "Remix": 8303,
      "Scen": 8304,
      "Zas": 8305,
      "bre": 8306,
      "gn": 8307,
      "psy": 8308,
      "ves": 8309,
      "zaÅĤ": 8310,
      "Ġsmu": 8311,
      "ĠsÅĤuÅ¼": 8312,
      "Ġbraw": 8313,
      "rzony": 8314,
      "chÄħ": 8315,
      "nienie": 8316,
      "nienia": 8317,
      "ĠpoÅĤam": 8318,
      "kat": 8319,
      "Ġczuj": 8320,
      "owiadam": 8321,
      "ĠmarzyÄĩ": 8322,
      "ĠwydajÄĻ": 8323,
      "goÅĽ": 8324,
      "Ġwieki": 8325,
      "Ġodpal": 8326,
      "Ġboss": 8327,
      "Ġleki": 8328,
      "ÅĤuje": 8329,
      "Ġkapi": 8330,
      "Ġprzystan": 8331,
      "ĠBal": 8332,
      "ĠSLU": 8333,
      "Ġpijemy": 8334,
      "ĠPary": 8335,
      "Ġrozpa": 8336,
      "Ġbeztro": 8337,
      "Ġtamto": 8338,
      "Ġdupe": 8339,
      "Ġrelak": 8340,
      "ĠsÅĤowem": 8341,
      "ĠoglÄħdaÄĩ": 8342,
      "graf": 8343,
      "grafii": 8344,
      "ĠzrobiÄħ": 8345,
      "niÄĻcie": 8346,
      "Ġbania": 8347,
      "Kochanie": 8348,
      "ĠEn": 8349,
      "Å»yje": 8350,
      "Ġwalce": 8351,
      "ĠkrzyczÄĻ": 8352,
      "Ġgrub": 8353,
      "ĠwraÅ¼eÅĦ": 8354,
      "ĠpamiÄĻci": 8355,
      "ĠfinaÅĤ": 8356,
      "ĠwolnoÅĽci": 8357,
      "ĠskoÅĦcz": 8358,
      "BÄĻdziemy": 8359,
      "ĠplanÃ³w": 8360,
      "Ġzabije": 8361,
      "Ġkobieta": 8362,
      "Ġdrzwiami": 8363,
      "ĠÅĤyÅ¼": 8364,
      "ĠprzyszÅĤa": 8365,
      "LiczÄĻ": 8366,
      "ĠÅģo": 8367,
      "ĠchÅĤopaka": 8368,
      "Paru": 8369,
      "ĠStar": 8370,
      "ĠksywÄĻ": 8371,
      "Ġpierwszego": 8372,
      "KupiÅĤem": 8373,
      "Spokoj": 8374,
      "ĠTwojej": 8375,
      "Ġnarkotyki": 8376,
      "ĠÅĤapiesz": 8377,
      "ĠimprezÄĻ": 8378,
      "Ġkolana": 8379,
      "Ġnajgorsze": 8380,
      "ĠdotknÄħÄĩ": 8381,
      "Skurwysynu": 8382,
      "ĠminÄĻÅĤo": 8383,
      "ceniam": 8384,
      "Ġbunt": 8385,
      "KaÅ¼dego": 8386,
      "Ġwyboru": 8387,
      "NiektÃ³rzy": 8388,
      "AP": 8389,
      "Tem": 8390,
      "Woo": 8391,
      "Ye": 8392,
      "cym": 8393,
      "dniej": 8394,
      "jemu": 8395,
      "knÄħ": 8396,
      "lt": 8397,
      "ob": 8398,
      "ory": 8399,
      "owaÅĤem": 8400,
      "zak": 8401,
      "ĠJest": 8402,
      "Ġpt": 8403,
      "Ġplam": 8404,
      "Ġblaka": 8405,
      "ĠnaszÄħ": 8406,
      "Ġow": 8407,
      "Ġchro": 8408,
      "Ġchill": 8409,
      "Ġzarzu": 8410,
      "Ġzatru": 8411,
      "entem": 8412,
      "Ġszo": 8413,
      "ĠtaksÃ³w": 8414,
      "Ġfat": 8415,
      "Ġwieczne": 8416,
      "staura": 8417,
      "ĠwidziaÅĤeÅĽ": 8418,
      "Ġkata": 8419,
      "ezet": 8420,
      "ĠrozwiÄħ": 8421,
      "Ġbaba": 8422,
      "Ġtamtym": 8423,
      "ĠÅĽwiatu": 8424,
      "ĠobraÅ¼": 8425,
      "ĠbraÅĤem": 8426,
      "Przej": 8427,
      "rive": 8428,
      "Ðµr": 8429,
      "Ġpotwo": 8430,
      "ĠsamobÃ³j": 8431,
      "sowaÄĩ": 8432,
      "Ġhot": 8433,
      "ĠformÄĻ": 8434,
      "ĠgÃ³ra": 8435,
      "Ġtwojego": 8436,
      "sehen": 8437,
      "Ġproblemu": 8438,
      "Ġsekund": 8439,
      "Ġnowiny": 8440,
      "Ġzwyczaj": 8441,
      "PaÅĤa": 8442,
      "Zostaw": 8443,
      "ĠÅºreni": 8444,
      "Ġsprzed": 8445,
      "Reprezent": 8446,
      "Ġzwroty": 8447,
      "reestyle": 8448,
      "uszki": 8449,
      "ĠmÅĤodych": 8450,
      "ĠnagraÅĤ": 8451,
      "ĠpÃ³jÅĽÄĩ": 8452,
      "ĠwÅĤos": 8453,
      "Ġnadzieja": 8454,
      "Ġwyplu": 8455,
      "Ġchamie": 8456,
      "ĠspeÅĤnia": 8457,
      "ĠgÄĻby": 8458,
      "Ġszansy": 8459,
      "ĠzachÃ³d": 8460,
      "Ġblanty": 8461,
      "Ġidoli": 8462,
      "ĠtÄĻskniÄĻ": 8463,
      "ĠTVN": 8464,
      "Ġmistrz": 8465,
      "Skurwysyny": 8466,
      "Ġminuty": 8467,
      "ĠniosÄĻ": 8468,
      "Uwierz": 8469,
      "200": 8470,
      "Bang": 8471,
      "Cel": 8472,
      "LE": 8473,
      "MÄĻ": 8474,
      "Pio": 8475,
      "miÄħ": 8476,
      "Ð¸": 8477,
      "ĠCho": 8478,
      "Ġsej": 8479,
      "Ġwrze": 8480,
      "Ġdemo": 8481,
      "Ġklep": 8482,
      "ÅĽÅĽ": 8483,
      "ÅĽlÄĻ": 8484,
      "Ġniei": 8485,
      "Ġnieprzy": 8486,
      "Ġposk": 8487,
      "Ġchowam": 8488,
      "nal": 8489,
      "tas": 8490,
      "Ġwydz": 8491,
      "Ġwysko": 8492,
      "Ġwyrok": 8493,
      "Ġud": 8494,
      "Ġupo": 8495,
      "Ġnigga": 8496,
      "Ġkopa": 8497,
      "cego": 8498,
      "bieraj": 8499,
      "Ġraju": 8500,
      "Ġprzegry": 8501,
      "ĠÅĽla": 8502,
      "ĠÅĽciÄħga": 8503,
      "logii": 8504,
      "Åºdzi": 8505,
      "Jebie": 8506,
      "wyÅ¼ej": 8507,
      "Nasza": 8508,
      "Zara": 8509,
      "Zawi": 8510,
      "Ġliga": 8511,
      "ĠliÅĽcie": 8512,
      "ckÃ³w": 8513,
      "cker": 8514,
      "Ġrea": 8515,
      "ĠmÃ³wiÅĤeÅĽ": 8516,
      "Ġkonto": 8517,
      "ĠLil": 8518,
      "ByÅĤa": 8519,
      "ByliÅĽmy": 8520,
      "ĠzostawiÄĻ": 8521,
      "Ġostrze": 8522,
      "Ġostry": 8523,
      "ĠVie": 8524,
      "ĠVIP": 8525,
      "Mijam": 8526,
      "ĠmuzykÄħ": 8527,
      "MiaÅĤeÅĽ": 8528,
      "ĠsprawdziÄĩ": 8529,
      "Ġfik": 8530,
      "Ġfiuta": 8531,
      "Ġklika": 8532,
      "ĠsÅĤuchaÅĤem": 8533,
      "ĠdziewczynÄħ": 8534,
      "thing": 8535,
      "ĠzapomnÄĻ": 8536,
      "Ġfanki": 8537,
      "Ġoczek": 8538,
      "Ġprawdziwych": 8539,
      "Ġautobu": 8540,
      "Ġhead": 8541,
      "Ġogarnij": 8542,
      "Ġzimno": 8543,
      "Jednak": 8544,
      "ĠtorbÄĻ": 8545,
      "ĠNicki": 8546,
      "Ġchcieliby": 8547,
      "Ġtwardo": 8548,
      "Ġdwuna": 8549,
      "czasem": 8550,
      "Ġnazywa": 8551,
      "play": 8552,
      "Ġgenera": 8553,
      "Ġhula": 8554,
      "Ġafter": 8555,
      "SÅĤoÅĦce": 8556,
      "ĠnastrÃ³j": 8557,
      "ĠÃ³s": 8558,
      "ĠCharlie": 8559,
      "Alko": 8560,
      "Fak": 8561,
      "Hi": 8562,
      "Har": 8563,
      "OS": 8564,
      "Trach": 8565,
      "bet": 8566,
      "cej": 8567,
      "if": 8568,
      "nder": 8569,
      "vy": 8570,
      "wkÄħ": 8571,
      "znÄħ": 8572,
      "ÏĤ": 8573,
      "Ġsong": 8574,
      "ĠwchodzÄħ": 8575,
      "Ġwhen": 8576,
      "Ġzi": 8577,
      "Ġzdy": 8578,
      "Ġzrzu": 8579,
      "Ġzgra": 8580,
      "akcja": 8581,
      "stru": 8582,
      "cznij": 8583,
      "Ġopuszcz": 8584,
      "Ġouais": 8585,
      "Ġporo": 8586,
      "Ġpolu": 8587,
      "Ġpopat": 8588,
      "Ġzagad": 8589,
      "erra": 8590,
      "jechaÅĤem": 8591,
      "Ġaro": 8592,
      "onÃ³w": 8593,
      "ĠmodÄĻ": 8594,
      "Ġwystar": 8595,
      "ĠwyÅĤÄħcz": 8596,
      "Ġszok": 8597,
      "Ġroli": 8598,
      "ĠradzÄĻ": 8599,
      "Ġodci": 8600,
      "Ġhur": 8601,
      "lolo": 8602,
      "Ġjach": 8603,
      "Ġwitaj": 8604,
      "rÃ³bo": 8605,
      "box": 8606,
      "Ġpaz": 8607,
      "Ġpapu": 8608,
      "Ġpapiero": 8609,
      "piony": 8610,
      "siness": 8611,
      "ĠWar": 8612,
      "Ġwole": 8613,
      "ĠAng": 8614,
      "ĠAnd": 8615,
      "ĠDM": 8616,
      "ĠstaraÄĩ": 8617,
      "Ġnajmniej": 8618,
      "Ġpierdolona": 8619,
      "Ġmord": 8620,
      "Ġbiega": 8621,
      "Ġzostawi": 8622,
      "ÅĤÄĻd": 8623,
      "Ġkariery": 8624,
      "ĠwzglÄĻ": 8625,
      "Witamy": 8626,
      "Ġwarta": 8627,
      "ĠpiÄĻkno": 8628,
      "ange": 8629,
      "ĠzwiÄĻk": 8630,
      "ĠkÅĤamaÄĩ": 8631,
      "ĠpisaÅĤ": 8632,
      "ĠmartwiÄĻ": 8633,
      "ĠÄĩpaÄĩ": 8634,
      "omoÅĽci": 8635,
      "ĠpoznaÅĤ": 8636,
      "ĠszukajÄħ": 8637,
      "rosÅĤem": 8638,
      "ĠpowodÃ³w": 8639,
      "Ġzjada": 8640,
      "Ġzawijam": 8641,
      "Ġbajka": 8642,
      "bijamy": 8643,
      "lazÅĤem": 8644,
      "ĠgardÅĤa": 8645,
      "ĠwierzyÅĤ": 8646,
      "bonent": 8647,
      "Zmieniam": 8648,
      "ladimir": 8649,
      "Ġtryb": 8650,
      "Ġotwarty": 8651,
      "Ġkaptur": 8652,
      "Czarne": 8653,
      "ĠwyobraÅºni": 8654,
      "ĠtreÅĽÄĩ": 8655,
      "ĠdÅºwiÄĻki": 8656,
      "Ġportfelu": 8657,
      "Prawdziwy": 8658,
      "Telefon": 8659,
      "Dis": 8660,
      "Dup": 8661,
      "Spra": 8662,
      "gowie": 8663,
      "two": 8664,
      "zuje": 8665,
      "znam": 8666,
      "ÑĢ": 8667,
      "Ġ/": 8668,
      "Ġsier": 8669,
      "Ġolej": 8670,
      "ĠpopÅĤy": 8671,
      "liÅ¼": 8672,
      "Ġzabierz": 8673,
      "ciÅĤa": 8674,
      "ĠwypÅĤy": 8675,
      "ĠwyciÄħga": 8676,
      "Niestety": 8677,
      "Ġkomi": 8678,
      "Ġ(?)": 8679,
      "szyÅĤ": 8680,
      "Ġrad": 8681,
      "Ġprzes": 8682,
      "ĠprzestaÅĤ": 8683,
      "Por": 8684,
      "szenie": 8685,
      "Ġkac": 8686,
      "chali": 8687,
      "Ġlala": 8688,
      "ĠPh": 8689,
      "ĠKrak": 8690,
      "ĠgÅĤowach": 8691,
      "Czwar": 8692,
      "Coraz": 8693,
      "Ġobej": 8694,
      "Ġkonk": 8695,
      "Ġserc": 8696,
      "ĠHer": 8697,
      "Ġstos": 8698,
      "ĠoglÄħdam": 8699,
      "Ġpozba": 8700,
      "Ġmordzie": 8701,
      "ĠkoÅĦczÄħ": 8702,
      "ĠbandÄħ": 8703,
      "Wiecz": 8704,
      "Ġrami": 8705,
      "Sztu": 8706,
      "Åģad": 8707,
      "Ġopowiem": 8708,
      "Ġpowstrzym": 8709,
      "Tacy": 8710,
      "ĠdziwkÄħ": 8711,
      "Ġkolejnym": 8712,
      "ĠpÄĻdzÄĻ": 8713,
      "ĠmogÅĤeÅĽ": 8714,
      "Mini": 8715,
      "Ġstron": 8716,
      "ĠbroniÄħ": 8717,
      "Ġblack": 8718,
      "prom": 8719,
      "Pisze": 8720,
      "ĠtÅĤumy": 8721,
      "robiÅĤem": 8722,
      "Ġsmaku": 8723,
      "SprÃ³buj": 8724,
      "ĠwstydzÄĻ": 8725,
      "dajesz": 8726,
      "ĠmelanÅ¼u": 8727,
      "Ġdrogich": 8728,
      "bijaÄĩ": 8729,
      "Ġspokoju": 8730,
      "ĠLove": 8731,
      "Ġpogoni": 8732,
      "ĠsÅĤodka": 8733,
      "Ġbenzy": 8734,
      "ĠÅĽmiaÄĩ": 8735,
      "basko": 8736,
      "WziÄħ": 8737,
      "ĠodejdÄĻ": 8738,
      "Ġoddali": 8739,
      "ĠwysyÅĤa": 8740,
      "MoÅ¼na": 8741,
      "Ġkieszenie": 8742,
      "ĠBaÅĤuty": 8743,
      "Ġpowinienem": 8744,
      "ĠdzwoniÄħ": 8745,
      "TÄĻsk": 8746,
      "IR": 8747,
      "Krew": 8748,
      "Who": 8749,
      "Zd": 8750,
      "Zwie": 8751,
      "bs": 8752,
      "Ġsra": 8753,
      "Ġwle": 8754,
      "ĠwÅĽcie": 8755,
      "Ġwdech": 8756,
      "Ġwjazd": 8757,
      "ĠdÄħ": 8758,
      "strem": 8759,
      "Ã³stwo": 8760,
      "Ġnasta": 8761,
      "dzajÄħ": 8762,
      "Ġig": 8763,
      "lizm": 8764,
      "lash": 8765,
      "Ġchuje": 8766,
      "Ġafer": 8767,
      "owana": 8768,
      "Ġmate": 8769,
      "Ġfason": 8770,
      "Ġhere": 8771,
      "ĠjaraÄĩ": 8772,
      "PoÅĽrÃ³d": 8773,
      "Ġspro": 8774,
      "kujesz": 8775,
      "Ġlewo": 8776,
      "Ġwidzimy": 8777,
      "Ġprzyda": 8778,
      "Nasz": 8779,
      "ĠTi": 8780,
      "ĠTen": 8781,
      "ĠSiÄĻ": 8782,
      "ĠSmo": 8783,
      "Ġprops": 8784,
      "ummer": 8785,
      "sive": 8786,
      "ĠWil": 8787,
      "ĠbaÅĤem": 8788,
      "manie": 8789,
      "Wypi": 8790,
      "Ġeli": 8791,
      "Ġkule": 8792,
      "Ġkonta": 8793,
      "TakÅ¼e": 8794,
      "ĠzamÃ³w": 8795,
      "hopu": 8796,
      "ĠogÃ³lnie": 8797,
      "Ġsynem": 8798,
      "ĠFre": 8799,
      "Ġbeka": 8800,
      "Ġsamolot": 8801,
      "Ġostre": 8802,
      "Ġkolegami": 8803,
      "Ġkino": 8804,
      "Ġvie": 8805,
      "ĠÅĽwieÅ¼": 8806,
      "rangut": 8807,
      "ĠtaÅĦca": 8808,
      "ĠpÄĻknie": 8809,
      "ChciaÅĤa": 8810,
      "Ġrodzice": 8811,
      "Ġbitwy": 8812,
      "ĠpytaÅĤ": 8813,
      "ĠkrÃ³tko": 8814,
      "Ġsala": 8815,
      "Ġtrueschool": 8816,
      "ĠsÅĤawy": 8817,
      "ĠzabiÅĤ": 8818,
      "ĠpolicjÄĻ": 8819,
      "Ġgrzechy": 8820,
      "ĠszczeroÅĽÄĩ": 8821,
      "Ġ15": 8822,
      "Ġneed": 8823,
      "ĠsprzedaÄĩ": 8824,
      "stanÃ³w": 8825,
      "ĠktÃ³rymi": 8826,
      "ĠdzieciakÃ³w": 8827,
      "Ġgodzina": 8828,
      "Ġpotrzebne": 8829,
      "ĠwaliÄĩ": 8830,
      "Ġemocj": 8831,
      "ĠIntro": 8832,
      "Å»adna": 8833,
      "Ġzabawy": 8834,
      "ĠzarobiÄĻ": 8835,
      "Ġkultura": 8836,
      "Syn": 8837,
      "ĠspojrzeÄĩ": 8838,
      "cyjne": 8839,
      "lalalala": 8840,
      "Dzieciaki": 8841,
      "ĠQuebo": 8842,
      "ĠpÅĤuca": 8843,
      "ĠzajebiÅĽcie": 8844,
      "bbyn": 8845,
      "Ġsytuacji": 8846,
      "Ġenergii": 8847,
      "Ġmonet": 8848,
      "Ġrakie": 8849,
      "ĠmateriaÅĤ": 8850,
      "ĠnajwaÅ¼niejsze": 8851,
      "Ġtkwi": 8852,
      "PrÄĻdzej": 8853,
      "Elo": 8854,
      "Eee": 8855,
      "Idziemy": 8856,
      "Powoli": 8857,
      "Rze": 8858,
      "Swoje": 8859,
      "ZY": 8860,
      "bony": 8861,
      "tut": 8862,
      "time": 8863,
      "zky": 8864,
      "Å¹": 8865,
      "Ġswet": 8866,
      "Ġsome": 8867,
      "ĠwrÃ³Å¼": 8868,
      "Ġwscho": 8869,
      "Ġmle": 8870,
      "Ġmani": 8871,
      "Ġbajera": 8872,
      "leks": 8873,
      "Ġosza": 8874,
      "Ġponow": 8875,
      "Ġgwi": 8876,
      "laÅĤbym": 8877,
      "Ġzapo": 8878,
      "Ġas": 8879,
      "owis": 8880,
      "ejdÅº": 8881,
      "Ġmatce": 8882,
      "Ġwypis": 8883,
      "Ġwytrzym": 8884,
      "Ġuj": 8885,
      "ĠuczyÄĩ": 8886,
      "Ġnight": 8887,
      "Ġkota": 8888,
      "ryj": 8889,
      "wood": 8890,
      "Ġodet": 8891,
      "Ġhie": 8892,
      "Ġjapy": 8893,
      "Ġsplu": 8894,
      "Ġspont": 8895,
      "ĠlejÄĻ": 8896,
      "Ġwir": 8897,
      "ĠCon": 8898,
      "ĠBaj": 8899,
      "ĠBDSM": 8900,
      "ĠTrzy": 8901,
      "ĠmieÅĽci": 8902,
      "ĠSco": 8903,
      "Ġrozmowy": 8904,
      "ĠKon": 8905,
      "ĠsÄħsie": 8906,
      "Wypierdalaj": 8907,
      "Ġchujowy": 8908,
      "ĠpowiedziaÅĤem": 8909,
      "Ġobec": 8910,
      "Niczym": 8911,
      "ĠbudziÄĩ": 8912,
      "Ġses": 8913,
      "Ġpusta": 8914,
      "artky": 8915,
      "Ġzamian": 8916,
      "Ġbarw": 8917,
      "hot": 8918,
      "Ġprawi": 8919,
      "Ġbrawo": 8920,
      "Ġprawej": 8921,
      "ĠOs": 8922,
      "Ġbieda": 8923,
      "Ġbiegnie": 8924,
      "ĠzÅĤotÃ³w": 8925,
      "Ġskoki": 8926,
      "ĠNIE": 8927,
      "miar": 8928,
      "ĠokÅĤad": 8929,
      "Ġgruba": 8930,
      "ĠmÅĤode": 8931,
      "kÅĤadaj": 8932,
      "ĠgÅĤupia": 8933,
      "Ġpasy": 8934,
      "Ġ22": 8935,
      "Ġmocne": 8936,
      "ĠJack": 8937,
      "Ġcyr": 8938,
      "ĠciÄĻÅ¼ar": 8939,
      "Ġgrobie": 8940,
      "Paluch": 8941,
      "kser": 8942,
      "Ġsiada": 8943,
      "Ġanio": 8944,
      "KtÃ³ra": 8945,
      "Ġostatnim": 8946,
      "Ġzwrotka": 8947,
      "ĠRolex": 8948,
      "ĠbutÃ³w": 8949,
      "Liczy": 8950,
      "Robisz": 8951,
      "ĠdÅĤugopis": 8952,
      "Ġbanger": 8953,
      "Ġlepszego": 8954,
      "ĠsÅĤodki": 8955,
      "ĠwierzyÅĤem": 8956,
      "ĠmÄħdry": 8957,
      "cyjny": 8958,
      "ĠjeÅºdziÄĩ": 8959,
      "ĠzazdroÅĽci": 8960,
      "Ġskurwiel": 8961,
      "DuÅ¼e": 8962,
      "Ġuderz": 8963,
      "ĠwiÄĻÅº": 8964,
      "ĠodejÅĽÄĩ": 8965,
      "Cieka": 8966,
      "Wielka": 8967,
      "Ġdefinicja": 8968,
      "ĠwyÅĽwie": 8969,
      "riend": 8970,
      "ĠnajwiÄĻkszy": 8971,
      "Fajnie": 8972,
      "Ġniunia": 8973,
      "Ġtygodniu": 8974,
      "Åģatwo": 8975,
      "ĠbekÄĻ": 8976,
      "ĠwÄħtpliwoÅĽci": 8977,
      "Ġklien": 8978,
      "sfalt": 8979,
      "rangutan": 8980,
      "Ġponownie": 8981,
      "Dia": 8982,
      "GU": 8983,
      "If": 8984,
      "ZÅĤa": 8985,
      "aÅĤa": 8986,
      "ihu": 8987,
      "pch": 8988,
      "tnoÅĽci": 8989,
      "Ñĥ": 8990,
      "Ġlow": 8991,
      "ÅĤaka": 8992,
      "Ġschem": 8993,
      "Ġwprowa": 8994,
      "Ġzgry": 8995,
      "Ġzjem": 8996,
      "stego": 8997,
      "chÅĤo": 8998,
      "lest": 8999,
      "Ġporan": 9000,
      "ĠgwaÅĤ": 9001,
      "anci": 9002,
      "lipa": 9003,
      "Ġzapierdalam": 9004,
      "arty": 9005,
      "ciÅĽnij": 9006,
      "Ġunika": 9007,
      "bisty": 9008,
      "tywy": 9009,
      "Ġprzechodzi": 9010,
      "nowaÄĩ": 9011,
      "ĠsprzÄħ": 9012,
      "ĠleÅ¼": 9013,
      "ĠnogÄĻ": 9014,
      "Ġwidzieli": 9015,
      "Å¼eÄĩ": 9016,
      "ĠBla": 9017,
      "Nagra": 9018,
      "NaprawdÄĻ": 9019,
      "ĠTHC": 9020,
      "ĠciszÄĻ": 9021,
      "Ġrozkur": 9022,
      "Ġtaniec": 9023,
      "ĠKe": 9024,
      "ĠbawiÄħ": 9025,
      "ciÄħÅĤ": 9026,
      "ĠGe": 9027,
      "skar": 9028,
      "ĠÅĤamie": 9029,
      "Ġpull": 9030,
      "ĠHu": 9031,
      "Å»ebym": 9032,
      "Ġbeen": 9033,
      "ĠsiÅĤÄħ": 9034,
      "Ġprzedtem": 9035,
      "Ġjebanych": 9036,
      "ĠspaÅĤem": 9037,
      "Ġkitu": 9038,
      "Ġoknie": 9039,
      "Ġpierwszych": 9040,
      "ĠpiÄĻciu": 9041,
      "Ġway": 9042,
      "ĠzakÅĤa": 9043,
      "ĠzakÅĤad": 9044,
      "ĠwraÅ¼enie": 9045,
      "ĠpamiÄĻta": 9046,
      "Podaj": 9047,
      "Ġbrowa": 9048,
      "Ġgadaj": 9049,
      "ĠChry": 9050,
      "ĠsÅĤawa": 9051,
      "ĠuciekaÄĩ": 9052,
      "talny": 9053,
      "zowaÄĩ": 9054,
      "Ġpowiedzenia": 9055,
      "ĠbiaÅĤym": 9056,
      "Ġnecie": 9057,
      "ĠzamieniÄĩ": 9058,
      "krÄĻcam": 9059,
      "ĠsÅĤoÅĦcu": 9060,
      "Ġzdarza": 9061,
      "Ġpowodu": 9062,
      "Ġzdrowia": 9063,
      "ĠnagraÅĤem": 9064,
      "Ġmiliar": 9065,
      "ĠwÅĤadzy": 9066,
      "ĠekipÄĻ": 9067,
      "Ġrobota": 9068,
      "Ġcena": 9069,
      "ĠprÃ³buj": 9070,
      "ĠprÃ³bujÄĻ": 9071,
      "PuÅĽÄĩ": 9072,
      "ĠJezus": 9073,
      "dowod": 9074,
      "czeÅĦstwo": 9075,
      "ĠbÅĤysk": 9076,
      "ĠbÅĤyszczy": 9077,
      "Ġreally": 9078,
      "ĠkanaÅĤ": 9079,
      "ĠpoÅĤowa": 9080,
      "Trzymaj": 9081,
      "ĠLife": 9082,
      "Ġwspomnienia": 9083,
      "Ġkolanach": 9084,
      "Ġmurem": 9085,
      "ĠkrÄħg": 9086,
      "Ġbaniek": 9087,
      "Ġsklepie": 9088,
      "Wasze": 9089,
      "ĠtreÅĽci": 9090,
      "ĠznalazÅĤem": 9091,
      "ĠzapamiÄĻtaj": 9092,
      "Ġzadzwoni": 9093,
      "ĠszedÅĤem": 9094,
      "Ġulubiony": 9095,
      "PotrzebujÄĻ": 9096,
      "ĠtatuaÅ¼e": 9097,
      "Bla": 9098,
      "Cy": 9099,
      "Ogar": 9100,
      "Plan": 9101,
      "Smut": 9102,
      "ham": 9103,
      "pas": 9104,
      "uchy": 9105,
      "xt": 9106,
      "Ġshe": 9107,
      "Ġschodzi": 9108,
      "Ġcall": 9109,
      "ĠkÅĤy": 9110,
      "lety": 9111,
      "czkach": 9112,
      "cznego": 9113,
      "ĠpoÅĤy": 9114,
      "Ġpokry": 9115,
      "ando": 9116,
      "ÅĤon": 9117,
      "ÅĤowa": 9118,
      "entu": 9119,
      "niony": 9120,
      "onuje": 9121,
      "Ġwyczu": 9122,
      "Ġura": 9123,
      "ĠuwagÄĻ": 9124,
      "Niez": 9125,
      "Ġkoni": 9126,
      "toro": 9127,
      "bienia": 9128,
      "Ġfran": 9129,
      "Ġradia": 9130,
      "jara": 9131,
      "ĠspÃ³Åº": 9132,
      "wiaÅĤem": 9133,
      "ĠMÃ³w": 9134,
      "JakbyÅĽ": 9135,
      "Ġkurwi": 9136,
      "ĠpiÅĤka": 9137,
      "dep": 9138,
      "ZaczÄħ": 9139,
      "ĠtaÅĽ": 9140,
      "Ġlisty": 9141,
      "Ġskro": 9142,
      "ĠAni": 9143,
      "ĠGer": 9144,
      "Ġstado": 9145,
      "Ġwese": 9146,
      "Ġkupisz": 9147,
      "Ġobli": 9148,
      "Ġserde": 9149,
      "Ġznaczenie": 9150,
      "ĠpuÅĤap": 9151,
      "ĠLon": 9152,
      "ĠpracÄħ": 9153,
      "Å»ebyÅĽ": 9154,
      "ĠktÃ³ryÅĽ": 9155,
      "Ġstracenia": 9156,
      "Ġmiejscach": 9157,
      "Ġwarty": 9158,
      "ĠVol": 9159,
      "ĠkrzyczeÄĩ": 9160,
      "ĠkieÅĤ": 9161,
      "ĠmÅĤodoÅĽÄĩ": 9162,
      "Ġfortu": 9163,
      "ĠpiÄĻknych": 9164,
      "Ġwyjdziesz": 9165,
      "ĠÅĽmiejÄħ": 9166,
      "ĠciÄĻÅ¼ka": 9167,
      "jebali": 9168,
      "ĠnawinÄĻ": 9169,
      "ĠzmieniajÄħ": 9170,
      "Ġnajlepszych": 9171,
      "ĠpomÃ³Å¼": 9172,
      "Ġfeel": 9173,
      "ĠzniknÄĻ": 9174,
      "KtÃ³rzy": 9175,
      "Ġtematu": 9176,
      "Ġanty": 9177,
      "Ġwink": 9178,
      "ĠzabÃ³j": 9179,
      "sÅĤownie": 9180,
      "Ġdrzew": 9181,
      "ĠminutÄĻ": 9182,
      "Ġpoczuj": 9183,
      "Ġludzkie": 9184,
      "ĠJanusz": 9185,
      "Ġkrzywdy": 9186,
      "Ġkomplet": 9187,
      "ĠciepÅĤo": 9188,
      "ĠszczÄĻÅĽliwy": 9189,
      "Ġzabierze": 9190,
      "Ġzauwa": 9191,
      "Ġtrampki": 9192,
      "ĠcisnÄĻ": 9193,
      "Ġcheck": 9194,
      "wzajem": 9195,
      "Ġowoc": 9196,
      "Ġwhisky": 9197,
      "WÃ³da": 9198,
      "Ġluksus": 9199,
      "**": 9200,
      "Ciebie": 9201,
      "Dy": 9202,
      "Grze": 9203,
      "OW": 9204,
      "Og": 9205,
      "Rz": 9206,
      "Wia": 9207,
      "WczeÅĽniej": 9208,
      "brak": 9209,
      "cas": 9210,
      "ktor": 9211,
      "rki": 9212,
      "sny": 9213,
      "wak": 9214,
      "zdo": 9215,
      "zio": 9216,
      "Ġ!": 9217,
      "Ġana": 9218,
      "ÅĤaj": 9219,
      "ĠwpaÅĽÄĩ": 9220,
      "ĠzresztÄħ": 9221,
      "ras": 9222,
      "Ġnieco": 9223,
      "ĠniedÅĤugo": 9224,
      "Ġpoty": 9225,
      "Ġposp": 9226,
      "Ġdocen": 9227,
      "tycznie": 9228,
      "Ġszuf": 9229,
      "bae": 9230,
      "Ġhuh": 9231,
      "Pocz": 9232,
      "Ġsplen": 9233,
      "ĠMc": 9234,
      "ĠMart": 9235,
      "Ġprzyczy": 9236,
      "ĠCy": 9237,
      "ĠBat": 9238,
      "ĠBor": 9239,
      "ĠBos": 9240,
      "Ġluster": 9241,
      "....": 9242,
      "Ġznaki": 9243,
      "Ġsosu": 9244,
      "Ġkurs": 9245,
      "chaÅĤa": 9246,
      "Ġpisz": 9247,
      "Ġlipa": 9248,
      "Typie": 9249,
      "ĠwodÄħ": 9250,
      "powaÄĩ": 9251,
      "ĠbaÅĤagan": 9252,
      "ĠÅĽwiadom": 9253,
      "zaÅĤem": 9254,
      "Ġkuchni": 9255,
      "Ġloo": 9256,
      "ĠÅĤam": 9257,
      "ĠÅĤak": 9258,
      "ĠHi": 9259,
      "ĠIKE": 9260,
      "ByÅĤy": 9261,
      "ĠbaniÄĻ": 9262,
      "ĠsÅĤusz": 9263,
      "ĠstraciÅĤ": 9264,
      "ood": 9265,
      "ĠpiÄĻtro": 9266,
      "Ġkieli": 9267,
      "ĠzaklÄĻ": 9268,
      "MaÅĤy": 9269,
      "Ġtrend": 9270,
      "Ġrodzinie": 9271,
      "Ġczarnych": 9272,
      "ĠrzuÄĩ": 9273,
      "Ġwspania": 9274,
      "ĠgÃ³wnia": 9275,
      "jebaÅĤeÅĽ": 9276,
      "Ġdniu": 9277,
      "ĠwyglÄħdam": 9278,
      "Ġfilmie": 9279,
      "Ġnever": 9280,
      "Ġosiedl": 9281,
      "Ġgarni": 9282,
      "Ġhero": 9283,
      "Ġdzieciakiem": 9284,
      "Ġcelem": 9285,
      "Ġdumnie": 9286,
      "Ġbujasz": 9287,
      "ĠskÅĤadam": 9288,
      "ĠciemnoÅĽÄĩ": 9289,
      "ĠchÅĤopcem": 9290,
      "Ġspokojny": 9291,
      "ĠgÅĤoÅĽnikach": 9292,
      "Ġksywa": 9293,
      "ĠdziaÅĤaÄĩ": 9294,
      "ĠÅļwiÄĻ": 9295,
      "ĠAmsterdam": 9296,
      "forma": 9297,
      "Ġzielony": 9298,
      "Ġapte": 9299,
      "Ġapart": 9300,
      "ĠÅ»ab": 9301,
      "Ġtelewizji": 9302,
      "Ġzacznij": 9303,
      "ĠTrack": 9304,
      "ĠMati": 9305,
      "Ġbrzydki": 9306,
      "ĠwiozÄĻ": 9307,
      "ĠbutelkÄĻ": 9308,
      "ĠtrÃ³jkÄħ": 9309,
      "Ġurodziny": 9310,
      "Ġzasypia": 9311,
      "ĠzgubiÄĩ": 9312,
      "Ojciec": 9313,
      "ĠMercedes": 9314,
      "Ġradiu": 9315,
      "ĠYouTube": 9316,
      "DA": 9317,
      "IdÄħ": 9318,
      "MaÅĤ": 9319,
      "Sram": 9320,
      "Wchodzi": 9321,
      "Wpada": 9322,
      "Znik": 9323,
      "bur": 9324,
      "gre": 9325,
      "pnie": 9326,
      "unek": 9327,
      "vol": 9328,
      "ierze": 9329,
      "ÅĤamy": 9330,
      "Ġsin": 9331,
      "ĠwszedÅĤem": 9332,
      "Ġwciska": 9333,
      "Ġcrazy": 9334,
      "Ġnaga": 9335,
      "Ġniebem": 9336,
      "Ġice": 9337,
      "koÅĦ": 9338,
      "ĠzajÄħÄĩ": 9339,
      "jej": 9340,
      "ciÅĤeÅĽ": 9341,
      "tara": 9342,
      "Ġtysi": 9343,
      "Ġmalu": 9344,
      "Ġmaski": 9345,
      "Ġmagia": 9346,
      "Ġmafii": 9347,
      "Ġwywo": 9348,
      "dawaj": 9349,
      "Ġusz": 9350,
      "Ġusu": 9351,
      "Ġkoza": 9352,
      "ryn": 9353,
      "Ġrol": 9354,
      "ĠrolÄĻ": 9355,
      "Ġprzew": 9356,
      "ney": 9357,
      "ciaÅĤem": 9358,
      "Ġleni": 9359,
      "Ġprzyg": 9360,
      "ĠCas": 9361,
      "ison": 9362,
      "isiej": 9363,
      "ĠmiesiÄħ": 9364,
      "ĠShe": 9365,
      "Jaraj": 9366,
      "body": 9367,
      "ĠPier": 9368,
      "Zapraszam": 9369,
      "Ġrozli": 9370,
      "Ġrozry": 9371,
      "Ġliczysz": 9372,
      "ĠWu": 9373,
      "elcome": 9374,
      "ĠAli": 9375,
      "Wych": 9376,
[...]
